{
  "version": "1.0",
  "truncation": null,
  "padding": null,
  "added_tokens": [
    {
      "id": 0,
      "content": "<unk>",
      "single_word": false,
      "lstrip": false,
      "rstrip": false,
      "normalized": false,
      "special": true
    },
    {
      "id": 1,
      "content": "<s>",
      "single_word": false,
      "lstrip": false,
      "rstrip": false,
      "normalized": false,
      "special": true
    },
    {
      "id": 2,
      "content": "</s>",
      "single_word": false,
      "lstrip": false,
      "rstrip": false,
      "normalized": false,
      "special": true
    },
    {
      "id": 3,
      "content": "<pad>",
      "single_word": false,
      "lstrip": false,
      "rstrip": false,
      "normalized": false,
      "special": true
    },
    {
      "id": 4,
      "content": "<mask >",
      "single_word": false,
      "lstrip": false,
      "rstrip": false,
      "normalized": false,
      "special": true
    },
    {
      "id": 5,
      "content": "<|im_start|>",
      "single_word": false,
      "lstrip": false,
      "rstrip": false,
      "normalized": false,
      "special": true
    },
    {
      "id": 6,
      "content": "<|im_end|>",
      "single_word": false,
      "lstrip": false,
      "rstrip": false,
      "normalized": false,
      "special": true
    }
  ],
  "normalizer": {
    "type": "Sequence",
    "normalizers": [
      {
        "type": "NFKC"
      }
    ]
  },
  "pre_tokenizer": {
    "type": "Metaspace",
    "replacement": "▁",
    "prepend_scheme": "always",
    "split": true
  },
  "post_processor": null,
  "decoder": {
    "type": "Metaspace",
    "replacement": "▁",
    "prepend_scheme": "always",
    "split": true
  },
  "model": {
    "type": "Unigram",
    "unk_id": 0,
    "vocab": [
      [
        "<unk>",
        0.0
      ],
      [
        "<s>",
        0.0
      ],
      [
        "</s>",
        0.0
      ],
      [
        "<pad>",
        0.0
      ],
      [
        "<mask >",
        0.0
      ],
      [
        "<|im_start|>",
        0.0
      ],
      [
        "<|im_end|>",
        0.0
      ],
      [
        "\":",
        -2.741786358652668
      ],
      [
        ",",
        -2.8659153361725043
      ],
      [
        ":",
        -2.8744719628179762
      ],
      [
        "▁",
        -3.010023822596521
      ],
      [
        "▁\"",
        -3.1863494260442433
      ],
      [
        "\",",
        -3.381613512921401
      ],
      [
        "▁{\"",
        -3.5884890905211666
      ],
      [
        "▁the",
        -3.7492700429851595
      ],
      [
        "description\"",
        -3.780905657709644
      ],
      [
        "\"",
        -3.932151858886595
      ],
      [
        "▁\"function\"",
        -4.14713223846724
      ],
      [
        "▁\"type",
        -4.14781320545746
      ],
      [
        "s",
        -4.327782931289223
      ],
      [
        "default",
        -4.340219228535039
      ],
      [
        "▁of",
        -4.371105361663497
      ],
      [
        "▁{\"name",
        -4.386133326140703
      ],
      [
        "▁to",
        -4.444632273081503
      ],
      [
        "e",
        -4.484598552487464
      ],
      [
        "▁for",
        -4.717442664473557
      ],
      [
        "▁\"Th",
        -4.72762469631377
      ],
      [
        "type\"",
        -4.748557151945702
      ],
      [
        "parameters",
        -4.818956875846997
      ],
      [
        ".",
        -4.999862858621513
      ],
      [
        "▁\"str",
        -5.073833155461343
      ],
      [
        "▁a",
        -5.142472708625562
      ],
      [
        "▁Default",
        -5.358764368656915
      ],
      [
        "a",
        -5.384889002402945
      ],
      [
        "ing",
        -5.393397116614156
      ],
      [
        "▁and",
        -5.446825987149779
      ],
      [
        "arg",
        -5.467020297662217
      ],
      [
        "▁optional\"",
        -5.503691388923913
      ],
      [
        "uments\"",
        -5.514141339900014
      ],
      [
        "▁in",
        -5.5229906187135684
      ],
      [
        "The",
        -5.630140085326475
      ],
      [
        "▁\"Fetch",
        -5.70524136959965
      ],
      [
        ".\"",
        -5.755932715024711
      ],
      [
        "▁from",
        -5.840550774497584
      ],
      [
        "▁is",
        -5.881510760669813
      ],
      [
        "▁[{\"",
        -5.899977151484767
      ],
      [
        "]",
        -5.923738374541326
      ],
      [
        "▁'",
        -5.92709170302843
      ],
      [
        "▁number",
        -5.931811909633807
      ],
      [
        "▁\"int",
        -5.943750736411514
      ],
      [
        "es",
        -5.951892875658567
      ],
      [
        "▁\"str\"",
        -5.95732331294669
      ],
      [
        "given",
        -6.026741662579651
      ],
      [
        "▁us",
        -6.070644832553048
      ],
      [
        "},",
        -6.07158730784859
      ],
      [
        "▁list",
        -6.07823082746207
      ],
      [
        "▁be",
        -6.091278870347507
      ],
      [
        "description",
        -6.091967741324595
      ],
      [
        "▁ID",
        -6.294357171679999
      ],
      [
        "▁specified",
        -6.312059805906879
      ],
      [
        "▁which",
        -6.316062519250975
      ],
      [
        "\"}}",
        -6.386478132842343
      ],
      [
        "_",
        -6.445183773740069
      ],
      [
        "▁API.",
        -6.476881541886429
      ],
      [
        "'",
        -6.508851950939931
      ],
      [
        "▁on",
        -6.53947747959979
      ],
      [
        "▁with",
        -6.5427072241673905
      ],
      [
        "▁optional",
        -6.5763021739141365
      ],
      [
        "▁or",
        -6.618135577785163
      ],
      [
        "▁RapidAPI",
        -6.629799526868559
      ],
      [
        "'.",
        -6.635676824860068
      ],
      [
        "▁information",
        -6.639153573027545
      ],
      [
        "is",
        -6.657345023198134
      ],
      [
        "▁\"\"}",
        -6.664206504798401
      ],
      [
        "▁search",
        -6.669642043055377
      ],
      [
        "t",
        -6.676862539591767
      ],
      [
        "d",
        -6.690486057529909
      ],
      [
        "}}",
        -6.700422065030983
      ],
      [
        "n",
        -6.743513245650248
      ],
      [
        "▁\"int\"",
        -6.75092664256622
      ],
      [
        "?",
        -6.766815998138909
      ],
      [
        "▁code",
        -6.785534450801102
      ],
      [
        "',",
        -6.799517170630295
      ],
      [
        "▁(",
        -6.800549024223138
      ],
      [
        "based",
        -6.81280728587931
      ],
      [
        "▁are",
        -6.816437613675146
      ],
      [
        "▁fetch",
        -6.884014245887952
      ],
      [
        "▁\"\"}}}}",
        -6.891824311303486
      ],
      [
        "▁data",
        -6.89183742657905
      ],
      [
        "▁API",
        -6.916723437752994
      ],
      [
        "▁by",
        -6.9447113455577405
      ],
      [
        "▁retrieve",
        -6.948584562919993
      ],
      [
        "\"}}}}",
        -6.949405969340494
      ],
      [
        ").",
        -6.94946487878165
      ],
      [
        "ed",
        -6.985175044680067
      ],
      [
        "type",
        -7.007521942602889
      ],
      [
        "g.",
        -7.01318352158888
      ],
      [
        "▁\"Calculate",
        -7.013793969604755
      ],
      [
        "and",
        -7.038611867087409
      ],
      [
        "▁\"Retrieve",
        -7.0542814459610215
      ],
      [
        "▁None.",
        -7.063396459265815
      ],
      [
        "▁specific",
        -7.065105947525866
      ],
      [
        "▁name",
        -7.074223943732296
      ],
      [
        "▁provided",
        -7.08963689403334
      ],
      [
        "o",
        -7.112120735600435
      ],
      [
        "g",
        -7.1256383283344995
      ],
      [
        "on",
        -7.17183271080914
      ],
      [
        "▁results",
        -7.191179692674898
      ],
      [
        "▁an",
        -7.19603722789872
      ],
      [
        "_id\"",
        -7.1964657877655736
      ],
      [
        "▁details",
        -7.202337831193396
      ],
      [
        "▁you",
        -7.221108602270212
      ],
      [
        "i",
        -7.230424251808094
      ],
      [
        "▁\"A",
        -7.245029040425695
      ],
      [
        "r",
        -7.257393196739188
      ],
      [
        "▁\"get_",
        -7.2730893447453875
      ],
      [
        "▁value",
        -7.3107892869656075
      ],
      [
        "▁date",
        -7.311267386759095
      ],
      [
        "f",
        -7.317130474439115
      ],
      [
        "▁address",
        -7.345788809389063
      ],
      [
        "▁\"int\"}}}}",
        -7.3624344401460515
      ],
      [
        "to",
        -7.365828224802537
      ],
      [
        "`",
        -7.3757586345752095
      ],
      [
        "▁service.",
        -7.384615621009483
      ],
      [
        "▁time",
        -7.4035344798517535
      ],
      [
        "▁identifier",
        -7.40448800592551
      ],
      [
        "l",
        -7.411021162140326
      ],
      [
        "▁user",
        -7.416194498772745
      ],
      [
        "u",
        -7.419602576507645
      ],
      [
        "if",
        -7.420694950107795
      ],
      [
        "▁page",
        -7.4311604241708356
      ],
      [
        "▁as",
        -7.443347289437582
      ],
      [
        "▁include",
        -7.468851925119145
      ],
      [
        "▁country",
        -7.4707064274329875
      ],
      [
        "▁first",
        -7.470895530394028
      ],
      [
        "▁for.",
        -7.489047653705963
      ],
      [
        "▁format",
        -7.493216945239133
      ],
      [
        "▁{\"num",
        -7.495204223310824
      ],
      [
        "the",
        -7.500709524492197
      ],
      [
        "▁\"str\"}}}}",
        -7.503740780972929
      ],
      [
        "id\"",
        -7.508256334663435
      ],
      [
        "▁1",
        -7.515980651137584
      ],
      [
        "2",
        -7.539097646291363
      ],
      [
        "▁language",
        -7.539173646673167
      ],
      [
        "is_id",
        -7.541731124420351
      ],
      [
        "y",
        -7.5438931178733855
      ],
      [
        "▁query",
        -7.548330437302791
      ],
      [
        "its",
        -7.55817332819546
      ],
      [
        "-",
        -7.584435125229444
      ],
      [
        "▁\"L",
        -7.590766526773856
      ],
      [
        "▁all",
        -7.591742095533417
      ],
      [
        "▁values",
        -7.616916970901392
      ],
      [
        "sing",
        -7.617182276296454
      ],
      [
        ")",
        -7.618726018133854
      ],
      [
        "▁product",
        -7.620834992953831
      ],
      [
        "▁stock",
        -7.634128612273498
      ],
      [
        "▁What",
        -7.64079974636032
      ],
      [
        "▁\"float\"}",
        -7.642846212990342
      ],
      [
        "▁`",
        -7.6442867418650975
      ],
      [
        "▁news",
        -7.651020874126105
      ],
      [
        "▁I",
        -7.6555136082367286
      ],
      [
        "▁string",
        -7.687120677088289
      ],
      [
        "▁each",
        -7.689538390079002
      ],
      [
        "▁(e",
        -7.69001210327446
      ],
      [
        "unique",
        -7.701663825702355
      ],
      [
        "▁rate",
        -7.7030427144961795
      ],
      [
        "▁symbol",
        -7.7068653641820815
      ],
      [
        "▁filter",
        -7.7104871728086755
      ],
      [
        "▁about",
        -7.716422345271211
      ],
      [
        "h",
        -7.718966254665556
      ],
      [
        "▁Can",
        -7.72357243099834
      ],
      [
        "e.",
        -7.723768777007345
      ],
      [
        "1",
        -7.75314740403179
      ],
      [
        "in",
        -7.764861802732941
      ],
      [
        "▁two",
        -7.771122881055503
      ],
      [
        "between",
        -7.7836434436248805
      ],
      [
        "▁investment",
        -7.798378735825699
      ],
      [
        "▁numbers",
        -7.801461938703165
      ],
      [
        "▁input",
        -7.806662016509716
      ],
      [
        "▁\"calculate_",
        -7.80695671838056
      ],
      [
        "uments",
        -7.807424714855889
      ],
      [
        "▁maximum",
        -7.812285665816487
      ],
      [
        "▁second",
        -7.817441319795299
      ],
      [
        "\"}",
        -7.824111942395584
      ],
      [
        "▁that",
        -7.824396865581307
      ],
      [
        "ly",
        -7.824784419842243
      ],
      [
        "m",
        -7.825056059192498
      ],
      [
        "▁start",
        -7.831333098888426
      ],
      [
        "▁\"Check",
        -7.834806320038703
      ],
      [
        "▁\"get",
        -7.83793414819439
      ],
      [
        "▁string.",
        -7.841385886625361
      ],
      [
        "▁\"Find",
        -7.847188562020561
      ],
      [
        "▁return",
        -7.858748534435381
      ],
      [
        "▁find",
        -7.865555170141097
      ],
      [
        "p",
        -7.871544505008979
      ],
      [
        "▁\\\"",
        -7.887463815673668
      ],
      [
        "▁optional\"}}}}",
        -7.896043938276108
      ],
      [
        "▁can",
        -7.899816382444454
      ],
      [
        "or",
        -7.906688786779513
      ],
      [
        "▁per",
        -7.908174711950604
      ],
      [
        "c",
        -7.909024535677039
      ],
      [
        "▁\"int\"}",
        -7.915468050636891
      ],
      [
        "▁ID.",
        -7.91811466258659
      ],
      [
        "▁key.",
        -7.919471998324771
      ],
      [
        "▁location",
        -7.921784332074113
      ],
      [
        "'s",
        -7.927664285559485
      ],
      [
        "▁results.",
        -7.931103982076625
      ],
      [
        "▁code.",
        -7.933150052557491
      ],
      [
        "of",
        -7.935050506653965
      ],
      [
        "▁integers",
        -7.936456509092684
      ],
      [
        "▁return.",
        -7.954763021907862
      ],
      [
        "▁year",
        -7.956981979059195
      ],
      [
        "letter",
        -7.963984567400928
      ],
      [
        "}}]",
        -7.968365816645773
      ],
      [
        "▁function",
        -7.96867631757451
      ],
      [
        "▁P",
        -7.988434904737105
      ],
      [
        "▁returns",
        -7.993571384780813
      ],
      [
        "b",
        -7.996961010195979
      ],
      [
        "▁IP",
        -8.002303772960865
      ],
      [
        "▁Toolbench",
        -8.010697969556004
      ],
      [
        "search",
        -8.040224555477405
      ],
      [
        "▁fetched.",
        -8.045316575845543
      ],
      [
        "▁URL",
        -8.050380241100664
      ],
      [
        "▁{\"symbol",
        -8.059536604285626
      ],
      [
        "▁city",
        -8.067922053786301
      ],
      [
        "▁currency",
        -8.103633567422797
      ],
      [
        "▁\"boo",
        -8.11052996465701
      ],
      [
        "▁5",
        -8.115817940500197
      ],
      [
        "▁\"Search",
        -8.122788072606259
      ],
      [
        "▁represent",
        -8.123812380634693
      ],
      [
        "latest",
        -8.132625334049026
      ],
      [
        "by",
        -8.14519622921112
      ],
      [
        "▁annual",
        -8.146255091408019
      ],
      [
        "▁need",
        -8.14948421654402
      ],
      [
        "▁\"page",
        -8.155717171479129
      ],
      [
        "▁\"limit",
        -8.157558788453638
      ],
      [
        "▁email",
        -8.158053224465164
      ],
      [
        "▁numbers.",
        -8.163751187641022
      ],
      [
        "▁{\"q",
        -8.17574839400286
      ],
      [
        "▁\"str\"}",
        -8.189527911450913
      ],
      [
        "▁\"find_",
        -8.189602618894352
      ],
      [
        "x",
        -8.194281290569698
      ],
      [
        "▁3",
        -8.196731590793185
      ],
      [
        "▁Al",
        -8.203671496806798
      ],
      [
        "▁category",
        -8.208895053334803
      ],
      [
        "▁articles",
        -8.213684765848143
      ],
      [
        "▁A",
        -8.216015064252634
      ],
      [
        "▁initial",
        -8.217739663486984
      ],
      [
        "▁S",
        -8.221162442059425
      ],
      [
        "name\"",
        -8.22131759246311
      ],
      [
        "▁region",
        -8.23004294567362
      ],
      [
        "▁whe",
        -8.235626343014602
      ],
      [
        "▁(default",
        -8.238301543899262
      ],
      [
        "▁\"num_",
        -8.240031481853276
      ],
      [
        "▁2",
        -8.2405963886582
      ],
      [
        "▁over",
        -8.246153593492316
      ],
      [
        "▁\"country",
        -8.252621612865568
      ],
      [
        "▁order",
        -8.25282777966888
      ],
      [
        "▁detailed",
        -8.254733458939302
      ],
      [
        "▁price",
        -8.26430172654959
      ],
      [
        "al",
        -8.264915332232855
      ],
      [
        "▁used",
        -8.269289089803795
      ],
      [
        "▁username",
        -8.271172071616089
      ],
      [
        "').",
        -8.274780710643713
      ],
      [
        "probability",
        -8.278947082264608
      ],
      [
        "Number",
        -8.282504183932815
      ],
      [
        "▁location.",
        -8.289210308547673
      ],
      [
        "▁list.",
        -8.295429887780202
      ],
      [
        "▁text",
        -8.30337715619186
      ],
      [
        "▁retrieved.",
        -8.306344939641981
      ],
      [
        "5,",
        -8.32000347557439
      ],
      [
        "▁geographic",
        -8.322445560331527
      ],
      [
        "▁retrieve.",
        -8.32467452739981
      ],
      [
        "▁who",
        -8.329105412855203
      ],
      [
        "ther",
        -8.332088424678695
      ],
      [
        "▁get",
        -8.336419389884846
      ],
      [
        "list",
        -8.33887790117727
      ],
      [
        "▁distance",
        -8.340717132474662
      ],
      [
        "▁within",
        -8.35396120755956
      ],
      [
        "\\\"",
        -8.35499395510293
      ],
      [
        "▁latitude",
        -8.356850760347939
      ],
      [
        "▁into",
        -8.358442964659165
      ],
      [
        "▁number.",
        -8.359224709929629
      ],
      [
        "▁longitude",
        -8.371521909566487
      ],
      [
        "size",
        -8.371816431160049
      ],
      [
        "▁'en'.",
        -8.375604900871664
      ],
      [
        "▁{\"is",
        -8.377016737590333
      ],
      [
        "▁target",
        -8.37738629621212
      ],
      [
        "▁domain",
        -8.389106789110379
      ],
      [
        "▁years.",
        -8.396422582428336
      ],
      [
        "▁not",
        -8.397018267615614
      ],
      [
        "years",
        -8.398685324666268
      ],
      [
        "▁interest",
        -8.400308071873361
      ],
      [
        "▁data.",
        -8.401393727742986
      ],
      [
        "historical",
        -8.404937614999568
      ],
      [
        "will",
        -8.40559830499457
      ],
      [
        "limit",
        -8.405667666062374
      ],
      [
        "▁sorted",
        -8.406698311475257
      ],
      [
        "▁set",
        -8.408780583096794
      ],
      [
        "▁range",
        -8.409996236420493
      ],
      [
        "binary",
        -8.411713347426867
      ],
      [
        "▁parameters.",
        -8.41558654696188
      ],
      [
        "▁base",
        -8.417237042142958
      ],
      [
        "▁sum",
        -8.420416567996945
      ],
      [
        "▁type",
        -8.422831926305305
      ],
      [
        "date",
        -8.424647664349106
      ],
      [
        "_rate\"",
        -8.425862031049071
      ],
      [
        "▁1.",
        -8.428510269155533
      ],
      [
        "next",
        -8.429395682654548
      ],
      [
        "▁{\"page",
        -8.431375217331187
      ],
      [
        "▁[",
        -8.441259625107847
      ],
      [
        "▁\"language",
        -8.44404725929444
      ],
      [
        "_by_",
        -8.450367338158575
      ],
      [
        "▁match",
        -8.454701834461076
      ],
      [
        "▁field",
        -8.455702753063228
      ],
      [
        "▁total",
        -8.455762310339544
      ],
      [
        "▁YouTube",
        -8.457309653014184
      ],
      [
        "▁10",
        -8.457924420669256
      ],
      [
        "▁\"ar",
        -8.461557889744299
      ],
      [
        "▁years",
        -8.463382002534765
      ],
      [
        "re",
        -8.465479660608356
      ],
      [
        "I",
        -8.466578547821364
      ],
      [
        "▁format.",
        -8.468691320231798
      ],
      [
        "▁company",
        -8.46884769676397
      ],
      [
        "▁\"1\"}}}}",
        -8.469664544775517
      ],
      [
        "▁\"T",
        -8.470790727655645
      ],
      [
        "▁ticker",
        -8.470884153520668
      ],
      [
        "▁ISO",
        -8.4712619942852
      ],
      [
        "▁index",
        -8.47285896843342
      ],
      [
        "▁image",
        -8.480559101211387
      ],
      [
        "▁items",
        -8.484741244695678
      ],
      [
        "▁F",
        -8.485216168988448
      ],
      [
        "▁Instagram",
        -8.486233429967257
      ],
      [
        "▁coordinates",
        -8.488397722869133
      ],
      [
        "code",
        -8.488522127272276
      ],
      [
        "▁{\"text",
        -8.493890990936846
      ],
      [
        "▁area",
        -8.499001635749185
      ],
      [
        "▁\"lang",
        -8.503418232105098
      ],
      [
        "▁\"is_",
        -8.50871256774915
      ],
      [
        "▁provide",
        -8.510568955893362
      ],
      [
        "▁result",
        -8.512138805749851
      ],
      [
        "▁\"float",
        -8.516457590224082
      ],
      [
        "an",
        -8.523214972850344
      ],
      [
        "▁returned",
        -8.523250989126272
      ],
      [
        "▁{",
        -8.523909892961555
      ],
      [
        "▁\"Filter",
        -8.526613905142437
      ],
      [
        "▁size",
        -8.531289334584034
      ],
      [
        "▁endpoint.",
        -8.532434162039277
      ],
      [
        "▁response",
        -8.534447421153628
      ],
      [
        "_list\"",
        -8.534906279812652
      ],
      [
        "▁random",
        -8.534987779143275
      ],
      [
        "▁options",
        -8.53628282117451
      ],
      [
        "▁0.",
        -8.539522945810262
      ],
      [
        "ir",
        -8.541879942366897
      ],
      [
        "T",
        -8.542365799975883
      ],
      [
        "▁query.",
        -8.54955675024686
      ],
      [
        "▁item",
        -8.550371346004756
      ],
      [
        "▁weight",
        -8.555002798699299
      ],
      [
        "▁video",
        -8.555925430834765
      ],
      [
        "▁integer",
        -8.559711021020652
      ],
      [
        "related",
        -8.560623551853912
      ],
      [
        "Fetch",
        -8.573132618115986
      ],
      [
        "▁point",
        -8.573396967590764
      ],
      [
        "▁color",
        -8.578261435204318
      ],
      [
        "for",
        -8.579343713703842
      ],
      [
        "▁term",
        -8.581482453557543
      ],
      [
        "▁chart",
        -8.585691577590646
      ],
      [
        "▁current",
        -8.58978966963356
      ],
      [
        "▁response.",
        -8.591620718422186
      ],
      [
        "▁movie",
        -8.593431533359482
      ],
      [
        "▁\"List[float]\"}",
        -8.59720445103908
      ],
      [
        "▁u",
        -8.599637592823825
      ],
      [
        "▁one",
        -8.60088063279429
      ],
      [
        "▁use",
        -8.60172312101322
      ],
      [
        "also",
        -8.602687025374129
      ],
      [
        "▁element",
        -8.60376419460539
      ],
      [
        "▁length",
        -8.604344065331862
      ],
      [
        "▁order.",
        -8.610140224216892
      ],
      [
        "from",
        -8.610934984761546
      ],
      [
        "▁keyword",
        -8.61128720844071
      ],
      [
        "▁period",
        -8.6143196408806
      ],
      [
        "▁\"float\"}}}}",
        -8.615318714713974
      ],
      [
        "▁fetch.",
        -8.615493555765791
      ],
      [
        "▁M",
        -8.618724987636
      ],
      [
        "▁{\"email",
        -8.619218989101505
      ],
      [
        "▁True",
        -8.619245705930211
      ],
      [
        "▁\"M",
        -8.620675174860091
      ],
      [
        "▁\"b",
        -8.622303606941125
      ],
      [
        "▁10.",
        -8.626124133887618
      ],
      [
        "▁season",
        -8.626343613425847
      ],
      [
        "▁{\"year",
        -8.627739741620278
      ],
      [
        "▁\"List[int]\"}}}}",
        -8.628704094389718
      ],
      [
        "▁\"C",
        -8.628974279710786
      ],
      [
        "IP",
        -8.63207547967324
      ],
      [
        "▁TikTok",
        -8.638097236102695
      ],
      [
        "▁at",
        -8.641244467559304
      ],
      [
        "aximum",
        -8.64258190046833
      ],
      [
        "us",
        -8.65307215899944
      ],
      [
        "▁\"search_",
        -8.65994833439238
      ],
      [
        "▁title",
        -8.66013063791043
      ],
      [
        "▁top",
        -8.66044554247799
      ],
      [
        "▁\"Perform",
        -8.661154586674876
      ],
      [
        "▁\"Generate",
        -8.664027170174888
      ],
      [
        "▁decimal",
        -8.6641047173926
      ],
      [
        "▁available",
        -8.667029967805368
      ],
      [
        "▁check.",
        -8.668423480734159
      ],
      [
        "If",
        -8.672566928551085
      ],
      [
        "s.\"",
        -8.676459826037757
      ],
      [
        "▁points",
        -8.676796197201753
      ],
      [
        "at",
        -8.682806794718683
      ],
      [
        "▁level",
        -8.683098776554719
      ],
      [
        "atitude",
        -8.684957952584352
      ],
      [
        "'?",
        -8.685927696270946
      ],
      [
        "▁look",
        -8.689697839723962
      ],
      [
        "▁cryptocurrency",
        -8.694713147435081
      ],
      [
        "▁Retrieve",
        -8.695630048075206
      ],
      [
        "▁game",
        -8.697432004577756
      ],
      [
        "▁request",
        -8.701426964386146
      ],
      [
        "▁weather",
        -8.704605502105592
      ],
      [
        "▁population",
        -8.706292600780962
      ],
      [
        "k",
        -8.707964746043814
      ],
      [
        "▁'US'.",
        -8.710042571243774
      ],
      [
        "_numbers\"",
        -8.713536423735373
      ],
      [
        "▁team",
        -8.717716029729097
      ],
      [
        "username\"",
        -8.72026534506891
      ],
      [
        "query\"",
        -8.725099135167596
      ],
      [
        "▁non-",
        -8.726929935676493
      ],
      [
        "ongitude",
        -8.73572213130547
      ],
      [
        "D",
        -8.73653340347827
      ],
      [
        "▁statistics",
        -8.742297181936326
      ],
      [
        "_code\"",
        -8.744651331135044
      ],
      [
        "▁products",
        -8.75141993413693
      ],
      [
        "/",
        -8.752131183146076
      ],
      [
        "▁\"List[int]\"}",
        -8.753531906443557
      ],
      [
        "▁\"lat",
        -8.757419647092824
      ],
      [
        "▁\"en\"}",
        -8.763574495441912
      ],
      [
        "▁30",
        -8.766752539886674
      ],
      [
        "▁valid",
        -8.770318773947384
      ],
      [
        "QR",
        -8.771979725439298
      ],
      [
        "▁Coul",
        -8.775529253378695
      ],
      [
        "▁check",
        -8.778716533276356
      ],
      [
        "▁growth",
        -8.778972571823267
      ],
      [
        "▁'YYYY-MM-DD'.",
        -8.779162067249118
      ],
      [
        "▁limit",
        -8.782621241546346
      ],
      [
        "3",
        -8.784454226992736
      ],
      [
        "▁\"search",
        -8.785172062664667
      ],
      [
        "▁pagination",
        -8.786139285543625
      ],
      [
        "▁market",
        -8.786328069156774
      ],
      [
        "▁word",
        -8.791650356274175
      ],
      [
        "ether",
        -8.796083063112583
      ],
      [
        "▁\"Compute",
        -8.798964095984303
      ],
      [
        "▁C",
        -8.80261092269954
      ],
      [
        "}",
        -8.810910864746436
      ],
      [
        "anguage",
        -8.816744217594321
      ],
      [
        "▁20",
        -8.824400274851204
      ],
      [
        "▁\"I",
        -8.831805677718192
      ],
      [
        "url\"",
        -8.835437009866316
      ],
      [
        "ous",
        -8.83893801260471
      ],
      [
        "▁\"v1_",
        -8.845953227468453
      ],
      [
        "ossible",
        -8.850913288969249
      ],
      [
        "▁2-",
        -8.85388347690805
      ],
      [
        "▁Mus",
        -8.855493851607584
      ],
      [
        "strike",
        -8.856728332736418
      ],
      [
        "▁average",
        -8.857703045570073
      ],
      [
        "▁characters",
        -8.85810997040976
      ],
      [
        "0",
        -8.859424062275256
      ],
      [
        "▁roll",
        -8.871567617408404
      ],
      [
        "▁Option",
        -8.872548989023239
      ],
      [
        "4,",
        -8.873698565594623
      ],
      [
        "▁interval",
        -8.8761173869006
      ],
      [
        "▁\"float\"",
        -8.876232075715409
      ],
      [
        "▁pagination.",
        -8.876929968992973
      ],
      [
        "ative",
        -8.878521773539902
      ],
      [
        "electric",
        -8.88444538089879
      ],
      [
        "▁\".\"",
        -8.885954737177833
      ],
      [
        "ul",
        -8.886810348703523
      ],
      [
        "\"type",
        -8.890409175721377
      ],
      [
        "▁locations",
        -8.896674448110435
      ],
      [
        "name",
        -8.906065108032337
      ],
      [
        "▁height",
        -8.907409338947108
      ],
      [
        "minimum",
        -8.907852715503203
      ],
      [
        "▁US",
        -8.909601370809023
      ],
      [
        "▁\"is_valid_",
        -8.913627109586933
      ],
      [
        "▁another",
        -8.913641041268518
      ],
      [
        "\"function\"",
        -8.914795940820369
      ],
      [
        "largest",
        -8.914988822537593
      ],
      [
        "▁[1",
        -8.916709851721592
      ],
      [
        "▁descending",
        -8.917359662116619
      ],
      [
        "▁make",
        -8.919202547413903
      ],
      [
        "▁amount",
        -8.919633492309755
      ],
      [
        "List[float]\"}}}}",
        -8.92066292152383
      ],
      [
        "out",
        -8.920748295969158
      ],
      [
        "quantity",
        -8.926067589167527
      ],
      [
        "▁For",
        -8.928341654410898
      ],
      [
        "▁correspond",
        -8.928503601524167
      ],
      [
        "▁character",
        -8.930728414436818
      ],
      [
        "▁\"Wh",
        -8.931112755459855
      ],
      [
        "▁10,",
        -8.933698693085793
      ],
      [
        "▁brand",
        -8.934437331277804
      ],
      [
        "▁dictionary",
        -8.93714360402496
      ],
      [
        "▁\"0\"}",
        -8.937705564957678
      ],
      [
        "v",
        -8.941391140564214
      ],
      [
        "▁{\"ticker",
        -8.942053138872975
      ],
      [
        "deviation",
        -8.943023154270755
      ],
      [
        "▁suc",
        -8.945777960067797
      ],
      [
        "▁\"time",
        -8.946964445651611
      ],
      [
        "▁{\"n",
        -8.947800594178553
      ],
      [
        "\\\",",
        -8.949990986928029
      ],
      [
        "▁\"1\"}",
        -8.950966116345654
      ],
      [
        "offset\"",
        -8.95129880224308
      ],
      [
        "7,",
        -8.953442917730207
      ],
      [
        "▁sort",
        -8.95347400515318
      ],
      [
        "▁text.",
        -8.953736775343378
      ],
      [
        "Calculate",
        -8.954109667928233
      ],
      [
        "▁/products/",
        -8.954306907328485
      ],
      [
        "ve",
        -8.956892747462255
      ],
      [
        "▁includ",
        -8.95866690131544
      ],
      [
        "2,",
        -8.961626139243204
      ],
      [
        "\\\".",
        -8.962409535624829
      ],
      [
        "daily",
        -8.963021592726296
      ],
      [
        "=",
        -8.965929146359402
      ],
      [
        "3,",
        -8.966576626220531
      ],
      [
        "▁object",
        -8.969348135513211
      ],
      [
        "▁what",
        -8.970477793343676
      ],
      [
        "▁information.",
        -8.971007295418998
      ],
      [
        "▁property",
        -8.974485692074932
      ],
      [
        "5",
        -8.975860104093996
      ],
      [
        "▁sho",
        -8.977853535368592
      ],
      [
        "▁page.",
        -8.978123645206034
      ],
      [
        "6",
        -8.978683323613467
      ],
      [
        "▁vari",
        -8.9805907101988
      ],
      [
        "▁Z",
        -8.98216217087306
      ],
      [
        "4",
        -8.983956725470886
      ],
      [
        "▁\"city",
        -8.988796763813514
      ],
      [
        "ip",
        -8.990608732107692
      ],
      [
        "▁i",
        -8.991079045866273
      ],
      [
        "▁Google",
        -8.996773698989449
      ],
      [
        "w",
        -8.997091308230102
      ],
      [
        "▁up",
        -8.99715584325999
      ],
      [
        "▁true}",
        -8.998900700727601
      ],
      [
        "▁by.",
        -8.999308218058665
      ],
      [
        "▁value.",
        -9.005120408549143
      ],
      [
        "▁{\"domain",
        -9.007211741089712
      ],
      [
        "▁New",
        -9.008356735845995
      ],
      [
        "▁density",
        -9.00990586346429
      ],
      [
        "▁event",
        -9.010634745476455
      ],
      [
        "desired",
        -9.010697059661783
      ],
      [
        "▁state",
        -9.013634845493677
      ],
      [
        "▁point.",
        -9.014266605610313
      ],
      [
        "interest",
        -9.016200537714024
      ],
      [
        "▁request.",
        -9.019351291852496
      ],
      [
        "▁unit",
        -9.01985715136436
      ],
      [
        "P",
        -9.024348778315108
      ],
      [
        "▁dividend",
        -9.025552741673406
      ],
      [
        "▁\"sort",
        -9.029803826589156
      ],
      [
        "▁exchange",
        -9.032699711773695
      ],
      [
        "▁E",
        -9.034559521107122
      ],
      [
        "Name",
        -9.035072284966589
      ],
      [
        "C",
        -9.036775535716487
      ],
      [
        "▁{\"keyword",
        -9.03806093890134
      ],
      [
        "usin",
        -9.042416371073784
      ],
      [
        "▁phone",
        -9.045582706019395
      ],
      [
        "6,",
        -9.046204401345188
      ],
      [
        "▁\"US\"}",
        -9.04713026237771
      ],
      [
        "▁year.",
        -9.047700823654628
      ],
      [
        "▁standard",
        -9.047874216181887
      ],
      [
        "▁matches",
        -9.051339160837731
      ],
      [
        "▁range.",
        -9.05302083907641
      ],
      [
        "▁JSON",
        -9.056458076680915
      ],
      [
        "l,",
        -9.057497244345559
      ],
      [
        "format",
        -9.05804319665387
      ],
      [
        "▁analysis",
        -9.061640587735692
      ],
      [
        "J",
        -9.062589816522156
      ],
      [
        "▁\"currency",
        -9.067215861464568
      ],
      [
        "▁Valid",
        -9.070187689086353
      ],
      [
        "user",
        -9.07418534637673
      ],
      [
        "B",
        -9.078881924752359
      ],
      [
        "▁prices",
        -9.080538233624997
      ],
      [
        "▁\"US\"}}}}",
        -9.08439959028442
      ],
      [
        "▁group",
        -9.08866175013111
      ],
      [
        "▁events",
        -9.090662256361863
      ],
      [
        "1\"",
        -9.090685286790336
      ],
      [
        "▁key",
        -9.091573347392513
      ],
      [
        "▁cities",
        -9.095154943698772
      ],
      [
        "▁Support",
        -9.095689414803976
      ],
      [
        "▁\"0\"}}}}",
        -9.095889837993063
      ],
      [
        "▁\"region",
        -9.096228285895956
      ],
      [
        "▁\"Specifi",
        -9.09777298732178
      ],
      [
        "s.",
        -9.098998837821009
      ],
      [
        "element",
        -9.099073140290047
      ],
      [
        "▁\"en\"}}}}",
        -9.10551911551872
      ],
      [
        "securities",
        -9.10586900203607
      ],
      [
        "▁False",
        -9.108169621428713
      ],
      [
        "▁\"get_ip_",
        -9.108464923819827
      ],
      [
        "▁specify",
        -9.10847141780086
      ],
      [
        "▁N",
        -9.108628571223164
      ],
      [
        "get",
        -9.109419740612857
      ],
      [
        "details",
        -9.110257456652374
      ],
      [
        "_of_",
        -9.110724106097306
      ],
      [
        "last",
        -9.111512999521908
      ],
      [
        "▁The",
        -9.113911844908845
      ],
      [
        "zipcode\"",
        -9.114242957278996
      ],
      [
        "▁from.",
        -9.116103016253204
      ],
      [
        "▁calculate",
        -9.117011509981696
      ],
      [
        "▁50",
        -9.117532949117127
      ],
      [
        "Find",
        -9.120247621827708
      ],
      [
        "▁12",
        -9.122117919451114
      ],
      [
        "▁forecast",
        -9.127360012425056
      ],
      [
        "▁player",
        -9.133280458869185
      ],
      [
        "▁parameter",
        -9.134378365738069
      ],
      [
        "▁channel",
        -9.1401887518488
      ],
      [
        "▁me",
        -9.145888276840395
      ],
      [
        "▁coordinate",
        -9.147517282558791
      ],
      [
        "▁{\"location",
        -9.147771378199563
      ],
      [
        "▁\"S",
        -9.150468248766856
      ],
      [
        "▁records",
        -9.151968879615286
      ],
      [
        "▁\"An",
        -9.15420141520609
      ],
      [
        "id",
        -9.154435903163995
      ],
      [
        "▁4",
        -9.154598355480442
      ],
      [
        "}}}",
        -9.158406813677844
      ],
      [
        "▁password",
        -9.158544997638188
      ],
      [
        "R",
        -9.160644785512865
      ],
      [
        "▁content",
        -9.162219971796242
      ],
      [
        "3}}",
        -9.162269624360047
      ],
      [
        "bacterial",
        -9.163248803492776
      ],
      [
        "▁20,",
        -9.163268682743167
      ],
      [
        "▁Inc.",
        -9.164156367351431
      ],
      [
        "▁hotel",
        -9.165793262044808
      ],
      [
        "▁other",
        -9.166650066008065
      ],
      [
        "user_id\"",
        -9.169158420770028
      ],
      [
        "▁\"format",
        -9.169320430647877
      ],
      [
        "IS",
        -9.169862358046906
      ],
      [
        "▁Data",
        -9.17317875497831
      ],
      [
        "▁series",
        -9.17346649177056
      ],
      [
        "▁returned.",
        -9.173679134316643
      ],
      [
        "as",
        -9.176592065897635
      ],
      [
        "value",
        -9.180764324808617
      ],
      [
        "dilution",
        -9.181795208850563
      ],
      [
        "_area",
        -9.18200697614722
      ],
      [
        "{\"",
        -9.183160433351413
      ],
      [
        "▁model",
        -9.18372653649199
      ],
      [
        "level",
        -9.184803324606378
      ],
      [
        "▁obtained",
        -9.18542222648398
      ],
      [
        "▁want",
        -9.188424125197098
      ],
      [
        "▁IDs",
        -9.189406260801434
      ],
      [
        "▁database",
        -9.19170433973091
      ],
      [
        "▁\"annual_",
        -9.192649197576555
      ],
      [
        "▁profile",
        -9.196308896501462
      ],
      [
        "▁pornstar",
        -9.196998082787601
      ],
      [
        "ertain",
        -9.198246241119085
      ],
      [
        "▁charge",
        -9.201624524277083
      ],
      [
        "▁meeting",
        -9.202231329156444
      ],
      [
        "▁\"min_",
        -9.203463074916712
      ],
      [
        "number",
        -9.20472060158344
      ],
      [
        "▁20.",
        -9.20701593647317
      ],
      [
        "Determine",
        -9.208751535088469
      ],
      [
        "▁only",
        -9.210832868694627
      ],
      [
        "▁{\"initial_",
        -9.212847477384381
      ],
      [
        "▁\"get_all_",
        -9.21358766183322
      ],
      [
        "cell",
        -9.217119007964934
      ],
      [
        "▁status",
        -9.2198790004143
      ],
      [
        "able",
        -9.22167607340152
      ],
      [
        "▁{\"length",
        -9.22309129985804
      ],
      [
        "_value\"",
        -9.225162445479675
      ],
      [
        "▁15,",
        -9.22533667807864
      ],
      [
        "▁posts",
        -9.225790043138467
      ],
      [
        "▁\"k",
        -9.226034286282442
      ],
      [
        "O",
        -9.228342242100567
      ],
      [
        "▁{\"l",
        -9.228750358890306
      ],
      [
        "8,",
        -9.231669862009081
      ],
      [
        "▁It",
        -9.233460283809134
      ],
      [
        "▁radius",
        -9.234903946037168
      ],
      [
        "▁addresses",
        -9.235671345203414
      ],
      [
        "multiple",
        -9.236051061061302
      ],
      [
        "page",
        -9.236056965452844
      ],
      [
        "K",
        -9.238361486943852
      ],
      [
        "leap",
        -9.239278966736126
      ],
      [
        "A",
        -9.240449859730482
      ],
      [
        "▁15",
        -9.240663006158586
      ],
      [
        "ation",
        -9.244408773942858
      ],
      [
        "▁Accept",
        -9.245864841271214
      ],
      [
        "▁contain",
        -9.246360201152251
      ],
      [
        "▁{\"country",
        -9.24694302055877
      ],
      [
        "rotated",
        -9.2470330233147
      ],
      [
        "▁scores",
        -9.248721162509879
      ],
      [
        "`.",
        -9.249014712609185
      ],
      [
        "}}}}",
        -9.249954147692382
      ],
      [
        "tconst",
        -9.250381423371133
      ],
      [
        "S",
        -9.250748819562315
      ],
      [
        "▁\"count",
        -9.250896025975731
      ],
      [
        "▁Amazon",
        -9.251828718772474
      ],
      [
        "▁show",
        -9.252094676765669
      ],
      [
        "▁{\"number",
        -9.254807257255209
      ],
      [
        "Minimum",
        -9.254927339998142
      ],
      [
        "▁TV",
        -9.255152324863449
      ],
      [
        "▁dice",
        -9.256524640117949
      ],
      [
        "so",
        -9.257494861646373
      ],
      [
        "▁\"category",
        -9.258860109342283
      ],
      [
        "▁\"symbol",
        -9.260054126383464
      ],
      [
        "data",
        -9.262454561147338
      ],
      [
        "Additional",
        -9.266771604536492
      ],
      [
        "▁endpoint",
        -9.267949024282498
      ],
      [
        "▁future",
        -9.26834193803063
      ],
      [
        "after",
        -9.26937015428292
      ],
      [
        "numbers\"",
        -9.26951540417183
      ],
      [
        "final",
        -9.270294855759989
      ],
      [
        "▁endpoints.",
        -9.272099958567026
      ],
      [
        "▁vehicle",
        -9.273441991849236
      ],
      [
        "8",
        -9.273908355976829
      ],
      [
        "▁die",
        -9.274354304141074
      ],
      [
        "lease",
        -9.276084680828466
      ],
      [
        "▁airplanes",
        -9.281291454629963
      ],
      [
        "▁\"year",
        -9.28224879347244
      ],
      [
        "▁parameter.",
        -9.287400288619786
      ],
      [
        "▁\"cursor",
        -9.289540909208332
      ],
      [
        "▁50.",
        -9.289838953333476
      ],
      [
        "▁English",
        -9.29034330339731
      ],
      [
        "he",
        -9.292251593836525
      ],
      [
        "date\"",
        -9.294332722017726
      ],
      [
        "cosine",
        -9.297639594558865
      ],
      [
        "▁(default)",
        -9.299430828896767
      ],
      [
        "▁details.",
        -9.301644322066803
      ],
      [
        "▁\"10\"}",
        -9.302267971252888
      ],
      [
        "▁images",
        -9.305588545568368
      ],
      [
        "▁lower",
        -9.305876913354208
      ],
      [
        "▁V",
        -9.310940167760618
      ],
      [
        "▁\"stock_",
        -9.312332560407032
      ],
      [
        "▁\"binary_",
        -9.312843027721675
      ],
      [
        "▁ascending",
        -9.314793616928423
      ],
      [
        "5}}",
        -9.315917979349441
      ],
      [
        "password\"",
        -9.3166933496918
      ],
      [
        "country",
        -9.317402551094524
      ],
      [
        "▁I'",
        -9.32041230821268
      ],
      [
        "earnings",
        -9.320665542942358
      ],
      [
        "▁c",
        -9.321466234895135
      ],
      [
        "▁\"p",
        -9.322977796052665
      ],
      [
        "trending",
        -9.324243869073294
      ],
      [
        "▁followers",
        -9.325274488864153
      ],
      [
        "amount",
        -9.32576642857847
      ],
      [
        "▁income",
        -9.333712347364493
      ],
      [
        "▁room",
        -9.335519626617387
      ],
      [
        "nested",
        -9.337528007952006
      ],
      [
        "0,",
        -9.34168564718116
      ],
      [
        "▁Ninja",
        -9.341803770694645
      ],
      [
        "pairs",
        -9.342352475128386
      ],
      [
        "2\"",
        -9.34377067145675
      ],
      [
        "▁question",
        -9.344387081167895
      ],
      [
        "▁T",
        -9.345369735430491
      ],
      [
        "▁convert",
        -9.345565284054846
      ],
      [
        "▁reviews",
        -9.347823617499666
      ],
      [
        "▁end",
        -9.349097275354309
      ],
      [
        "▁{\"p",
        -9.350053868905704
      ],
      [
        "postal",
        -9.350272674398028
      ],
      [
        "▁factor",
        -9.354707199203558
      ],
      [
        "all",
        -9.35567462145703
      ],
      [
        "▁(x",
        -9.358321339234305
      ],
      [
        "▁slug",
        -9.360778235419023
      ],
      [
        "financial",
        -9.362870029745748
      ],
      [
        "▁{\"i",
        -9.363031936634105
      ],
      [
        "radius\"",
        -9.363781671595273
      ],
      [
        "▁integrate",
        -9.364094607388612
      ],
      [
        "▁than",
        -9.369578011374868
      ],
      [
        "▁countries",
        -9.372071479510257
      ],
      [
        "▁3.",
        -9.372265705533872
      ],
      [
        "▁example",
        -9.373063825359202
      ],
      [
        "▁rates",
        -9.374009339495283
      ],
      [
        "▁language.",
        -9.375287616469224
      ],
      [
        "▁{\"is_",
        -9.375717470261703
      ],
      [
        "▁querying",
        -9.378099019066148
      ],
      [
        "▁suggestions",
        -9.380008490533246
      ],
      [
        "▁intervals",
        -9.380371128606058
      ],
      [
        "▁cards",
        -9.380566939382298
      ],
      [
        "ibonacci",
        -9.38064958196187
      ],
      [
        "▁post",
        -9.38314737050407
      ],
      [
        "sample.",
        -9.383456638002531
      ],
      [
        "addition\"",
        -9.383827108216146
      ],
      [
        "any",
        -9.3838440705641
      ],
      [
        "factorial",
        -9.385693889425575
      ],
      [
        "monthly",
        -9.387118389492866
      ],
      [
        "▁List",
        -9.38918060353908
      ],
      [
        "▁Billboard",
        -9.391741386617223
      ],
      [
        "▁Who",
        -9.392054834853496
      ],
      [
        "▁take",
        -9.392281453914247
      ],
      [
        "▁\"num",
        -9.396149605526702
      ],
      [
        "▁\"output",
        -9.399785541157195
      ],
      [
        "▁200",
        -9.40017094484271
      ],
      [
        "▁source",
        -9.400933624872557
      ],
      [
        "▁100",
        -9.401232394347597
      ],
      [
        "▁cursor",
        -9.405107389463563
      ],
      [
        "▁{\"region",
        -9.405570856559075
      ],
      [
        "▁locate",
        -9.4057841176607
      ],
      [
        "▁filtering",
        -9.40580345627439
      ],
      [
        "9",
        -9.405945001851483
      ],
      [
        "▁Allow",
        -9.40638112023606
      ],
      [
        "kg",
        -9.406916939056295
      ],
      [
        "▁6}",
        -9.40702884640276
      ],
      [
        "location",
        -9.411776816421668
      ],
      [
        "sides",
        -9.412177496195124
      ],
      [
        "V",
        -9.415651668464998
      ],
      [
        "▁symbol.",
        -9.41565845811661
      ],
      [
        "▁B",
        -9.416561561340053
      ],
      [
        "▁artist",
        -9.418421418426368
      ],
      [
        "▁miles",
        -9.418528419547455
      ],
      [
        "▁Th",
        -9.419636633777403
      ],
      [
        "▁\"generate_",
        -9.419891571054109
      ],
      [
        "th",
        -9.42020632713907
      ],
      [
        "▁more",
        -9.421031759862114
      ],
      [
        "most",
        -9.422942806770953
      ],
      [
        "similarity",
        -9.42347158673163
      ],
      [
        "_number\"",
        -9.424241329063818
      ],
      [
        "▁factorial",
        -9.424454106280626
      ],
      [
        "▁LeetCode",
        -9.424970010257182
      ],
      [
        "▁\"Convert",
        -9.425579468836881
      ],
      [
        "Search",
        -9.42558879149805
      ],
      [
        "▁\"height",
        -9.426327515662766
      ],
      [
        "▁criteria",
        -9.426331670928635
      ],
      [
        "▁standings",
        -9.427626210764942
      ],
      [
        "_year",
        -9.428424216315282
      ],
      [
        "▁token",
        -9.4285534691478
      ],
      [
        "this",
        -9.429368804783444
      ],
      [
        "▁\"gl",
        -9.42995675900821
      ],
      [
        "▁\"https://",
        -9.43123967084898
      ],
      [
        "▁6",
        -9.431534015976364
      ],
      [
        "have",
        -9.434119255095698
      ],
      [
        "se",
        -9.435042233156526
      ],
      [
        "▁\"AAPL\"}}}}",
        -9.4350861806888
      ],
      [
        "▁system",
        -9.435899229333975
      ],
      [
        "▁0",
        -9.438205511446398
      ],
      [
        "▁titles",
        -9.439110596380983
      ],
      [
        "▁[4",
        -9.43971018922044
      ],
      [
        "▁timestamp",
        -9.441920453719929
      ],
      [
        "▁amount.",
        -9.444433200278839
      ],
      [
        "city",
        -9.446127261944735
      ],
      [
        "▁elements",
        -9.446196864858022
      ],
      [
        "▁triangle",
        -9.446840874274185
      ],
      [
        "▁'USD'",
        -9.448551288436018
      ],
      [
        "▁York",
        -9.454067347233284
      ],
      [
        "▁10}}",
        -9.455433064705433
      ],
      [
        "recommended",
        -9.456445542313023
      ],
      [
        "udoku",
        -9.456469737677207
      ],
      [
        "▁\"c",
        -9.457223561404064
      ],
      [
        "be",
        -9.457420088091675
      ],
      [
        "callback",
        -9.45768725127489
      ],
      [
        "United",
        -9.457888130103424
      ],
      [
        "▁\"P",
        -9.458432192090177
      ],
      [
        "▁associat",
        -9.459402509691564
      ],
      [
        "batting",
        -9.461993961833944
      ],
      [
        "▁upper",
        -9.461997412663765
      ],
      [
        "▁wire",
        -9.464239763751847
      ],
      [
        "ending",
        -9.464541739722852
      ],
      [
        "▁\"lon",
        -9.466043194828508
      ],
      [
        "▁give",
        -9.466386545872641
      ],
      [
        "▁derivative",
        -9.466662782250243
      ],
      [
        "▁center",
        -9.4680374234382
      ],
      [
        "companies",
        -9.468139270838384
      ],
      [
        "▁duration",
        -9.469206723171443
      ],
      [
        "▁[\"",
        -9.470310919036802
      ],
      [
        "▁\"List[",
        -9.470712224040032
      ],
      [
        "username",
        -9.471209700490748
      ],
      [
        "▁country.",
        -9.476370174827924
      ],
      [
        "▁tournament",
        -9.479499426011836
      ],
      [
        "▁Spotify",
        -9.484815881086043
      ],
      [
        "▁games",
        -9.486145368853368
      ],
      [
        "▁{\"start",
        -9.487401413976563
      ],
      [
        "▁set.",
        -9.49088963250374
      ],
      [
        "H",
        -9.491588691435762
      ],
      [
        "confidence",
        -9.491921849569266
      ],
      [
        "technical",
        -9.49197368835335
      ],
      [
        "1,",
        -9.492471780500885
      ],
      [
        "▁W",
        -9.492603857600137
      ],
      [
        "▁3-",
        -9.49469196423711
      ],
      [
        "species",
        -9.494809926598117
      ],
      [
        "▁\"Unit",
        -9.495266322932643
      ],
      [
        "▁\"inflation",
        -9.497222835343228
      ],
      [
        "▁prediction.",
        -9.500839289697776
      ],
      [
        "summary",
        -9.500908514642981
      ],
      [
        "▁measurement.",
        -9.501205996870976
      ],
      [
        "▁single",
        -9.501788853106731
      ],
      [
        "▁[5",
        -9.503261315456736
      ],
      [
        "ary",
        -9.504105614015987
      ],
      [
        "▁\"10\"}}}}",
        -9.504428455729112
      ],
      [
        "▁must",
        -9.505499191533316
      ],
      [
        "▁check-",
        -9.506013468305435
      ],
      [
        "▁\"https://www.",
        -9.506525254930853
      ],
      [
        "▁phrase",
        -9.508725416717962
      ],
      [
        "sex",
        -9.510270841528062
      ],
      [
        "▁active",
        -9.510821135880693
      ],
      [
        "▁web",
        -9.515641078643784
      ],
      [
        "email",
        -9.515922756139501
      ],
      [
        "▁login",
        -9.518976435776057
      ],
      [
        "▁user.",
        -9.520114593706587
      ],
      [
        "Get",
        -9.522494944104658
      ],
      [
        "▁articles.",
        -9.523876347028068
      ],
      [
        "▁D",
        -9.523927926816885
      ],
      [
        "▁codes",
        -9.52490621627444
      ],
      [
        "▁region.",
        -9.527681463115558
      ],
      [
        "▁live",
        -9.530361893310051
      ],
      [
        "▁human",
        -9.531315037942012
      ],
      [
        "▁sample",
        -9.531420047668218
      ],
      [
        "▁report",
        -9.533742364710601
      ],
      [
        "common",
        -9.534274265120732
      ],
      [
        "▁6]",
        -9.535409166830437
      ],
      [
        "▁time.",
        -9.537498510143353
      ],
      [
        "▁positi",
        -9.538298285835578
      ],
      [
        "▁{\"target",
        -9.538934177260348
      ],
      [
        "_by_id\"",
        -9.539191873000043
      ],
      [
        "▁{\"city",
        -9.539889546855683
      ],
      [
        "▁UK",
        -9.54066864742515
      ],
      [
        "▁\"Count",
        -9.541204899773371
      ],
      [
        "Z",
        -9.542181098324823
      ],
      [
        "▁comments",
        -9.545226354533185
      ],
      [
        "▁1.2",
        -9.545431894687216
      ],
      [
        "▁{\"language",
        -9.550314302122423
      ],
      [
        "▁typical",
        -9.551952900605231
      ],
      [
        "▁videos",
        -9.554664274909046
      ],
      [
        "▁route",
        -9.55495307665539
      ],
      [
        "board",
        -9.555849423379668
      ],
      [
        "longitude",
        -9.557969064113351
      ],
      [
        "comma-separated",
        -9.558248406246511
      ],
      [
        "▁{\"interval",
        -9.558767890615037
      ],
      [
        "▁\"target\"",
        -9.563087590500972
      ],
      [
        "▁{\"category",
        -9.567242035167407
      ],
      [
        "quadratic",
        -9.56735254945307
      ],
      [
        "alimony",
        -9.56776826964694
      ],
      [
        "▁spouse",
        -9.570284076699776
      ],
      [
        "nclude",
        -9.5724466318645
      ],
      [
        "▁\"Sort",
        -9.572946426968137
      ],
      [
        "▁\"end_",
        -9.573109166849292
      ],
      [
        "▁\"email",
        -9.574720670300152
      ],
      [
        "▁inflation",
        -9.575024296831723
      ],
      [
        "▁1}}",
        -9.575367807614436
      ],
      [
        "▁\"1",
        -9.576083607727885
      ],
      [
        "▁5]",
        -9.576943379345975
      ],
      [
        "▁{\"season",
        -9.577490424575464
      ],
      [
        "▁velocity",
        -9.58295087503909
      ],
      [
        "content",
        -9.583310528935778
      ],
      [
        "▁\"B",
        -9.583810092716176
      ],
      [
        "▁postcode",
        -9.584287806368234
      ],
      [
        "▁\"Get",
        -9.584826380985541
      ],
      [
        "▁bound",
        -9.586142851129107
      ],
      [
        "▁9",
        -9.589467962500247
      ],
      [
        "▁store",
        -9.591267871841556
      ],
      [
        "▁\"reverse_",
        -9.591674803043384
      ],
      [
        "▁out",
        -9.595349941002134
      ],
      [
        "▁\"AAPL\"}",
        -9.59663133482568
      ],
      [
        "▁2023",
        -9.598594038745464
      ],
      [
        "rate",
        -9.598983482596374
      ],
      [
        "▁vector",
        -9.599614545605013
      ],
      [
        "▁article",
        -9.601306425679864
      ],
      [
        "_level\"",
        -9.602029644437755
      ],
      [
        "▁O",
        -9.604186613584602
      ],
      [
        "api.com",
        -9.607238345042168
      ],
      [
        "▁following",
        -9.6074328556901
      ],
      [
        "\"locale",
        -9.609560940797971
      ],
      [
        "▁KFC",
        -9.609679232987325
      ],
      [
        "▁public",
        -9.610187544681978
      ],
      [
        "▁song",
        -9.611053360369702
      ],
      [
        "latitude",
        -9.611642490423758
      ],
      [
        "▁\"count_",
        -9.61342519240163
      ],
      [
        "port",
        -9.613773546219116
      ],
      [
        "▁recent",
        -9.615061450705815
      ],
      [
        ".g",
        -9.61506959682925
      ],
      [
        "▁[2",
        -9.617326282230609
      ],
      [
        "▁w",
        -9.617836043548895
      ],
      [
        "▁race",
        -9.618868224917428
      ],
      [
        "▁\"market_",
        -9.620256073554874
      ],
      [
        "return",
        -9.620268663496088
      ],
      [
        "▁7",
        -9.620649002672547
      ],
      [
        "one",
        -9.621255302625638
      ],
      [
        "▁\"USD\"}",
        -9.621617485751628
      ],
      [
        "▁password.",
        -9.622120264979012
      ],
      [
        "▁(1",
        -9.625842612479161
      ],
      [
        "▁breed",
        -9.628926372800427
      ],
      [
        "trapezoidal",
        -9.630398793623446
      ],
      [
        "details\"",
        -9.630755600007939
      ],
      [
        "▁skip",
        -9.631131358895669
      ],
      [
        "▁listed",
        -9.631388134545965
      ],
      [
        "▁10000",
        -9.631410419015337
      ],
      [
        "▁names",
        -9.632225057520255
      ],
      [
        "▁table",
        -9.633869056780082
      ],
      [
        "▁loan",
        -9.6342339241877
      ],
      [
        "charge",
        -9.63594665688872
      ],
      [
        "▁\"max_",
        -9.636480221935662
      ],
      [
        "▁[3",
        -9.638702574144833
      ],
      [
        "▁pri",
        -9.642146049781362
      ],
      [
        "▁size.",
        -9.642941040533406
      ],
      [
        "▁days",
        -9.643885716994127
      ],
      [
        "▁\"List",
        -9.643937897704582
      ],
      [
        "▁two-",
        -9.644508838815149
      ],
      [
        "ype",
        -9.6448523096626
      ],
      [
        "▁minutes",
        -9.645998361939098
      ],
      [
        "▁\"end",
        -9.647130463039286
      ],
      [
        "intake",
        -9.647563886899059
      ],
      [
        "vertices",
        -9.649019249455685
      ],
      [
        "histogram",
        -9.649062873637769
      ],
      [
        "▁potential",
        -9.650838277508152
      ],
      [
        "ball",
        -9.65125002289392
      ],
      [
        "▁know",
        -9.651582632928301
      ],
      [
        "doubling",
        -9.651821990540745
      ],
      [
        "_growth\"",
        -9.651890549208876
      ],
      [
        "▁30.",
        -9.65202697295941
      ],
      [
        "▁8.854e-12",
        -9.652051877728784
      ],
      [
        "▁{\"weight_",
        -9.652285093717076
      ],
      [
        "st",
        -9.653560467212568
      ],
      [
        "▁quote",
        -9.653867130047654
      ],
      [
        "▁music",
        -9.654289909843078
      ],
      [
        "▁formatted",
        -9.655360859681743
      ],
      [
        "▁expiration",
        -9.65569062456232
      ],
      [
        "▁\"height_",
        -9.655772698600513
      ],
      [
        "subarray",
        -9.65583153339155
      ],
      [
        "paginated",
        -9.656119432408456
      ],
      [
        "▁{\"lon",
        -9.656153961859495
      ],
      [
        "7",
        -9.656559273161905
      ],
      [
        "▁generate.",
        -9.65706381648259
      ],
      [
        "▁\"Return",
        -9.657859030450421
      ],
      [
        "▁output",
        -9.658877562566708
      ],
      [
        "▁\"F",
        -9.659089491057669
      ],
      [
        "▁{\"point",
        -9.660174776433863
      ],
      [
        "▁\"us\"}",
        -9.66388926591097
      ],
      [
        "▁goal",
        -9.664933102094784
      ],
      [
        "▁polygon",
        -9.666318037765652
      ],
      [
        "are",
        -9.667882047940658
      ],
      [
        "▁California",
        -9.668417259553522
      ],
      [
        "calorie",
        -9.669469075910623
      ],
      [
        "▁movies",
        -9.669482527625618
      ],
      [
        "palindrome",
        -9.670493568500243
      ],
      [
        "▁name.",
        -9.671428841741848
      ],
      [
        "▁file",
        -9.674015154316022
      ],
      [
        "▁position",
        -9.67500928230557
      ],
      [
        "▁R",
        -9.676319627712829
      ],
      [
        "day",
        -9.680594136268834
      ],
      [
        "descending\"",
        -9.680879871509255
      ],
      [
        "s\"",
        -9.68308001728457
      ],
      [
        "▁project",
        -9.683108361883848
      ],
      [
        "_date\"",
        -9.683834160464823
      ],
      [
        "▁through",
        -9.686134481873522
      ],
      [
        "▁balance",
        -9.686827514285543
      ],
      [
        "sum",
        -9.687984933963543
      ],
      [
        "growth",
        -9.69037774994359
      ],
      [
        "▁25",
        -9.69065683741235
      ],
      [
        "▁\"D",
        -9.690935369213225
      ],
      [
        "▁offset",
        -9.691590528065818
      ],
      [
        "material",
        -9.692497480313445
      ],
      [
        "▁integration",
        -9.693369814549637
      ],
      [
        "▁types",
        -9.69403835691304
      ],
      [
        "▁floor",
        -9.694259732589682
      ],
      [
        "greater",
        -9.694982224260873
      ],
      [
        "▁float]]\"}}}}",
        -9.695134222520455
      ],
      [
        "▁{\"total",
        -9.695359801128816
      ],
      [
        "▁'en-US'.",
        -9.69536914835138
      ],
      [
        "rincipal",
        -9.695697998329802
      ],
      [
        "least",
        -9.695865287542908
      ],
      [
        "▁zip",
        -9.696300939209
      ],
      [
        "numerical",
        -9.696793018226465
      ],
      [
        "_sum\"",
        -9.696811358646078
      ],
      [
        "▁calculation.",
        -9.697434958228264
      ],
      [
        "▁mean",
        -9.69845070104369
      ],
      [
        "query",
        -9.704236957802665
      ],
      [
        "base",
        -9.705113467499762
      ],
      [
        "ID",
        -9.70695879196835
      ],
      [
        "▁35",
        -9.707152736091166
      ],
      [
        "▁activity",
        -9.707753493025775
      ],
      [
        "▁bot",
        -9.708681747188683
      ],
      [
        "▁WH",
        -9.709165504978554
      ],
      [
        "▁\"R",
        -9.710138910183996
      ],
      [
        "▁building",
        -9.71136705761164
      ],
      [
        "test",
        -9.71314636332781
      ],
      [
        "▁\"include_",
        -9.713480637836081
      ],
      [
        "▁Is",
        -9.713596923855086
      ],
      [
        "▁\"web_",
        -9.714373710461574
      ],
      [
        "▁{\"search",
        -9.714953082501136
      ],
      [
        "▁\"start",
        -9.715236817355377
      ],
      [
        "structural",
        -9.715998795779846
      ],
      [
        "▁availability",
        -9.716829205350434
      ],
      [
        "▁0.05",
        -9.717592248763573
      ],
      [
        "▁quotes",
        -9.719962018304681
      ],
      [
        "▁dog",
        -9.720687759804994
      ],
      [
        "float",
        -9.721478691957625
      ],
      [
        "▁x-",
        -9.72241106589347
      ],
      [
        "smallest",
        -9.723487656721073
      ],
      [
        "▁like",
        -9.723524981637802
      ],
      [
        "future",
        -9.724903213597303
      ],
      [
        "grade",
        -9.725093303387613
      ],
      [
        "▁60",
        -9.725216691465764
      ],
      [
        "subset",
        -9.727228111195132
      ],
      [
        "▁sub",
        -9.728446631184843
      ],
      [
        "▁measurement",
        -9.728553817380554
      ],
      [
        "▁\"unit",
        -9.73001039688128
      ],
      [
        "ical",
        -9.731095198972916
      ],
      [
        "_m",
        -9.731351075540282
      ],
      [
        "standing",
        -9.73168631888003
      ],
      [
        "▁Apple",
        -9.733083733963944
      ],
      [
        "▁\"en-US\"}}}}",
        -9.733494375424922
      ],
      [
        "shares",
        -9.734779976849438
      ],
      [
        "▁words",
        -9.735075690624436
      ],
      [
        "▁media",
        -9.735512183635066
      ],
      [
        "F",
        -9.73563614320355
      ],
      [
        "▁Code",
        -9.73622345394774
      ],
      [
        "▁person",
        -9.736943839728902
      ],
      [
        "_id",
        -9.737823332516282
      ],
      [
        "cubes",
        -9.737953813906099
      ],
      [
        "rmstrong",
        -9.7388328925925
      ],
      [
        "here",
        -9.739552663418866
      ],
      [
        "width",
        -9.739806392407957
      ],
      [
        "▁\"predict_",
        -9.74080928685453
      ],
      [
        "▁month",
        -9.741123160535492
      ],
      [
        "afeway",
        -9.741611264400165
      ],
      [
        "frequency",
        -9.742603913018801
      ],
      [
        "▁\"US\"}}",
        -9.742793827999169
      ],
      [
        "▁\"goal",
        -9.74369453363461
      ],
      [
        "▁around",
        -9.744534732646926
      ],
      [
        "▁sheet",
        -9.744957685773105
      ],
      [
        "ng",
        -9.746140879983821
      ],
      [
        "▁U",
        -9.747454515606819
      ],
      [
        "▁Examples",
        -9.750293653786336
      ],
      [
        "▁2]",
        -9.750889520284154
      ],
      [
        "▁division",
        -9.753540824378156
      ],
      [
        "numbers",
        -9.756022758735623
      ],
      [
        "j",
        -9.756973744016472
      ],
      [
        "▁1000",
        -9.757722399049152
      ],
      [
        "prices\"",
        -9.758572721245361
      ],
      [
        "▁group.",
        -9.761404157852121
      ],
      [
        "▁th",
        -9.761406378953556
      ],
      [
        "▁job",
        -9.761442662434174
      ],
      [
        "_detail\"",
        -9.762254384309031
      ],
      [
        "table",
        -9.763889933121707
      ],
      [
        "▁motorcycle",
        -9.764134005029273
      ],
      [
        "median",
        -9.764943594572001
      ],
      [
        "▁level.",
        -9.765561773727292
      ],
      [
        "p-",
        -9.768849716238407
      ],
      [
        "population\"",
        -9.769176051626866
      ],
      [
        "schedules",
        -9.771741828579051
      ],
      [
        "synaptic",
        -9.772068544325517
      ],
      [
        "▁term.",
        -9.772993156436074
      ],
      [
        "{\"name",
        -9.774320573139988
      ],
      [
        "▁Use",
        -9.776219253159583
      ],
      [
        "▁States",
        -9.777589422451634
      ],
      [
        "standings",
        -9.778221948265774
      ],
      [
        "▁6.",
        -9.778266438706252
      ],
      [
        "▁light",
        -9.778662909590274
      ],
      [
        "▁\"matrix_",
        -9.779154324275217
      ],
      [
        "▁similar",
        -9.78094116992019
      ],
      [
        "▁{\"a",
        -9.781752076562698
      ],
      [
        "▁special",
        -9.782228266804516
      ],
      [
        "significance",
        -9.78582522698472
      ],
      [
        "facility",
        -9.785826246124609
      ],
      [
        "z",
        -9.786006233551737
      ],
      [
        "uclidean",
        -9.786322773798847
      ],
      [
        "▁AliExpress",
        -9.788421854002651
      ],
      [
        "▁coefficient",
        -9.788459793994186
      ],
      [
        "▁\"List\"}}}}",
        -9.789915656018989
      ],
      [
        "▁\"merge_",
        -9.790118519857135
      ],
      [
        "▁sorting",
        -9.793961015560546
      ],
      [
        "cal",
        -9.794299178152375
      ],
      [
        "▁shares.",
        -9.794309143402149
      ],
      [
        "▁\"20\"}",
        -9.794451271182645
      ],
      [
        "▁member",
        -9.794556883569538
      ],
      [
        "▁fields",
        -9.794831157114434
      ],
      [
        "▁\"50\"}",
        -9.796185677536773
      ],
      [
        "phrase",
        -9.796249501020757
      ],
      [
        "▁\"size",
        -9.798622009623987
      ],
      [
        "age",
        -9.798765041137807
      ],
      [
        "news",
        -9.799003006116623
      ],
      [
        "api",
        -9.799285013838116
      ],
      [
        "y).",
        -9.799505128846992
      ],
      [
        "▁body",
        -9.799587726219107
      ],
      [
        "▁{\"brand",
        -9.799951470785523
      ],
      [
        "▁express",
        -9.800009090660993
      ],
      [
        "endpoint",
        -9.800395734306447
      ],
      [
        "▁\"activity",
        -9.802901764820799
      ],
      [
        "▁label",
        -9.804187195246376
      ],
      [
        "▁names.",
        -9.805309443279217
      ],
      [
        "▁50,",
        -9.805848362813803
      ],
      [
        "▁G",
        -9.810723081932082
      ],
      [
        "▁personal",
        -9.812611974280435
      ],
      [
        "▁\"d",
        -9.813652359307257
      ],
      [
        "▁calorie",
        -9.814166075848606
      ],
      [
        "coordinates",
        -9.814210777076715
      ],
      [
        "autocomplete",
        -9.815966211657619
      ],
      [
        "ion.",
        -9.818504950869466
      ],
      [
        "▁1]",
        -9.8192318709981
      ],
      [
        "payout",
        -9.81988084830271
      ],
      [
        "▁\"age",
        -9.820260586556177
      ],
      [
        "cation",
        -9.82053866756426
      ],
      [
        "random",
        -9.821737117618202
      ],
      [
        "product_id\"",
        -9.822843323759091
      ],
      [
        "▁statement",
        -9.823979398761438
      ],
      [
        "▁0.3",
        -9.824901096901762
      ],
      [
        "▁present",
        -9.825965457385397
      ],
      [
        "ne",
        -9.829070389799648
      ],
      [
        "▁'YYYY-MM-DD'",
        -9.829600804952202
      ],
      [
        "E",
        -9.829991899670313
      ],
      [
        "▁2.",
        -9.830440401510064
      ],
      [
        "readable",
        -9.831632721997956
      ],
      [
        "].",
        -9.833608912541544
      ],
      [
        "▁blockchain",
        -9.8337655645599
      ],
      [
        "quality",
        -9.835581675122185
      ],
      [
        "rotation",
        -9.83562522275085
      ],
      [
        "repeating",
        -9.835738094876252
      ],
      [
        "ority",
        -9.83644180353878
      ],
      [
        "start_time",
        -9.836485425908267
      ],
      [
        "since",
        -9.836799633769179
      ],
      [
        "▁space",
        -9.838053614087997
      ],
      [
        "▁score",
        -9.838056623673705
      ],
      [
        "▁instrument",
        -9.8386104789282
      ],
      [
        "▁\"checkin",
        -9.83880054045007
      ],
      [
        "_info\"",
        -9.840323458013383
      ],
      [
        "majority",
        -9.84100270101697
      ],
      [
        "▁'us'.",
        -9.842744732322172
      ],
      [
        "▁\"l",
        -9.84283778984479
      ],
      [
        "_time\"",
        -9.843751955318982
      ],
      [
        "ar",
        -9.844399993838717
      ],
      [
        "▁40",
        -9.84445144806988
      ],
      [
        "dditional",
        -9.844547113111194
      ],
      [
        "▁\"N",
        -9.845499764272827
      ],
      [
        "▁\"Predict",
        -9.846147138925296
      ],
      [
        "▁offer",
        -9.846792161349907
      ],
      [
        "omma-separated",
        -9.846885706927376
      ],
      [
        "▁\"en\"}}",
        -9.847862348765682
      ],
      [
        "▁round",
        -9.849644288416446
      ],
      [
        "▁\"New",
        -9.850346959321378
      ],
      [
        "ehicle",
        -9.850578100398101
      ],
      [
        "▁{\"str",
        -9.852131522614837
      ],
      [
        "▁\"checkout",
        -9.85218409873952
      ],
      [
        "▁no",
        -9.853096634614118
      ],
      [
        "_analysis",
        -9.8534642847759
      ],
      [
        "▁has",
        -9.853977267950256
      ],
      [
        "s_id\"",
        -9.856428527894394
      ],
      [
        "▁meetings",
        -9.857417541756549
      ],
      [
        "zipcode",
        -9.85755862688132
      ],
      [
        "▁home",
        -9.859627407006155
      ],
      [
        "▁option",
        -9.861195231005906
      ],
      [
        "▁albums",
        -9.86747377363296
      ],
      [
        "scores",
        -9.872476546108798
      ],
      [
        "▁season.",
        -9.87274440573853
      ],
      [
        "stage",
        -9.872755813855067
      ],
      [
        "▁valid.",
        -9.873724521514596
      ],
      [
        "▁image.",
        -9.874670725684226
      ],
      [
        "▁2000",
        -9.874959107014618
      ],
      [
        "▁included",
        -9.875024858740398
      ],
      [
        "_information",
        -9.876292312568523
      ],
      [
        "▁quarterly",
        -9.87675044561272
      ],
      [
        "▁\"find_n",
        -9.877190430409287
      ],
      [
        "▁coordinates.",
        -9.877663721605511
      ],
      [
        "▁opti",
        -9.87866671254131
      ],
      [
        "▁date.",
        -9.878923985807498
      ],
      [
        "▁\"2",
        -9.880242219273459
      ],
      [
        "address\"",
        -9.880664291259693
      ],
      [
        "▁sorted.",
        -9.880810058742245
      ],
      [
        "▁converted",
        -9.882071533224542
      ],
      [
        "▁GE",
        -9.88318533860363
      ],
      [
        "_list",
        -9.884812400584293
      ],
      [
        "▁week",
        -9.885689337406198
      ],
      [
        "▁pair",
        -9.887102832207434
      ],
      [
        "▁schedule",
        -9.887328370237263
      ],
      [
        "resistance",
        -9.888220134523378
      ],
      [
        "maintain",
        -9.888362072882611
      ],
      [
        "extension",
        -9.888539773277802
      ],
      [
        "end_time",
        -9.889384505853938
      ],
      [
        "▁HSL",
        -9.89008517356811
      ],
      [
        "▁'km'",
        -9.890325333468564
      ],
      [
        "▁Bible",
        -9.890495298919067
      ],
      [
        "density",
        -9.890594509131938
      ],
      [
        "▁'json'",
        -9.890610147175055
      ],
      [
        "▁at-bats",
        -9.890696017303853
      ],
      [
        "cross",
        -9.890737232649634
      ],
      [
        "▁\"is_power",
        -9.890823652359659
      ],
      [
        "▁\"title_get_",
        -9.89092146267497
      ],
      [
        "▁\\\"YYYY-MM-DD\\\"",
        -9.89099431741726
      ],
      [
        "▁(ISO",
        -9.891013955713477
      ],
      [
        "U",
        -9.8917147153726
      ],
      [
        "kth",
        -9.891917022150233
      ],
      [
        "▁{\"d",
        -9.89231724837661
      ],
      [
        "▁display",
        -9.893447287481107
      ],
      [
        "▁intake",
        -9.89418063859514
      ],
      [
        "_and_",
        -9.894215109769217
      ],
      [
        "9,",
        -9.894534256186239
      ],
      [
        "▁box",
        -9.895391681212569
      ],
      [
        "fuel",
        -9.89571093968608
      ],
      [
        "array",
        -9.896651104802485
      ],
      [
        "▁\"title",
        -9.896726861383513
      ],
      [
        "▁version",
        -9.89678703222176
      ],
      [
        "▁{\"event",
        -9.897984428204827
      ],
      [
        "address",
        -9.898335989897308
      ],
      [
        "▁trading",
        -9.89862735474343
      ],
      [
        "vector_",
        -9.898868405545583
      ],
      [
        "▁array.",
        -9.899645438047273
      ],
      [
        "▁required",
        -9.90233247240772
      ],
      [
        "Reverse",
        -9.903754569566381
      ],
      [
        "▁recipes",
        -9.904151449361716
      ],
      [
        "▁{\"count",
        -9.904831267363363
      ],
      [
        "players",
        -9.905820498934268
      ],
      [
        "▁'es'",
        -9.905939111099045
      ],
      [
        "▁search.",
        -9.906698529403517
      ],
      [
        "▁639-1",
        -9.906917647203729
      ],
      [
        "▁'mi'",
        -9.908263764830835
      ],
      [
        "▁zone",
        -9.908311620586304
      ],
      [
        "▁meters.",
        -9.909292008537115
      ],
      [
        "W",
        -9.909692434304999
      ],
      [
        "▁24",
        -9.909705023973057
      ],
      [
        "▁units",
        -9.91018758630349
      ],
      [
        "▁times",
        -9.91102256792964
      ],
      [
        "▁Los",
        -9.91239852072697
      ],
      [
        "mode",
        -9.912504255856664
      ],
      [
        "line",
        -9.913192404426713
      ],
      [
        "▁{\"word",
        -9.913299922503347
      ],
      [
        "▁database.",
        -9.913531705895249
      ],
      [
        "▁conditions",
        -9.914111936356754
      ],
      [
        "▁count",
        -9.915730049887422
      ],
      [
        "▁\"H",
        -9.915926009801826
      ],
      [
        "▁8",
        -9.916227128414661
      ],
      [
        "▁up.",
        -9.920266416208637
      ],
      [
        "▁minute",
        -9.92108506243723
      ],
      [
        "▁14",
        -9.921130969203457
      ],
      [
        ".com",
        -9.92288989017884
      ],
      [
        "▁circle",
        -9.924147480358874
      ],
      [
        "▁5.",
        -9.924957660294027
      ],
      [
        "▁playlists",
        -9.926990897054056
      ],
      [
        "rolled",
        -9.927957336378402
      ],
      [
        "cm",
        -9.927978228991794
      ],
      [
        "ody",
        -9.928880644102401
      ],
      [
        "▁case",
        -9.92921298941357
      ],
      [
        "▁are:",
        -9.93134859780642
      ],
      [
        "_rolls\"",
        -9.931748715800621
      ],
      [
        "ight",
        -9.934927002888019
      ],
      [
        "vailable",
        -9.935604134818439
      ],
      [
        "▁'en'",
        -9.935870944323
      ],
      [
        "▁requested",
        -9.937003908158045
      ],
      [
        "fore",
        -9.938409721190054
      ],
      [
        "▁book",
        -9.938468480564026
      ],
      [
        "▁hits",
        -9.941320137192681
      ],
      [
        "▁consecutive",
        -9.941899401560368
      ],
      [
        "_type\"",
        -9.942554686072487
      ],
      [
        "_dividend\"",
        -9.943359358999814
      ],
      [
        "vowels",
        -9.943758205524983
      ],
      [
        "_query_",
        -9.94387052692009
      ],
      [
        "longest",
        -9.943918407294912
      ],
      [
        "attend",
        -9.944503069715175
      ],
      [
        "Analyze",
        -9.944671890242422
      ],
      [
        "_monthly_",
        -9.945036266957295
      ],
      [
        "max_strike",
        -9.945139113663597
      ],
      [
        "Projects",
        -9.945465907588478
      ],
      [
        "▁\"Limit",
        -9.946135255751802
      ],
      [
        "▁previous",
        -9.946219738665162
      ],
      [
        "▁consider",
        -9.946249097382056
      ],
      [
        "▁deck",
        -9.946261795831196
      ],
      [
        "▁\\\"static\\\"",
        -9.946322629172311
      ],
      [
        "▁\"fibonacci",
        -9.946670019470831
      ],
      [
        "N",
        -9.946901577882537
      ],
      [
        "\\\").",
        -9.947291156346239
      ],
      [
        "▁formula.",
        -9.94742490986575
      ],
      [
        "administrative",
        -9.948880693982552
      ],
      [
        "▁power",
        -9.950300149612481
      ],
      [
        "▁L",
        -9.952013561582007
      ],
      [
        "_deprecat",
        -9.952076410509505
      ],
      [
        "▁difference",
        -9.953980729362275
      ],
      [
        "▁matrix",
        -9.955847809557113
      ],
      [
        "▁meters",
        -9.95627427833193
      ],
      [
        "▁past",
        -9.95714625977033
      ],
      [
        "▁{\"lang",
        -9.95744667139632
      ],
      [
        "\"login",
        -9.959090906968779
      ],
      [
        "▁timezone",
        -9.959346015005668
      ],
      [
        "triangle",
        -9.959506869907543
      ],
      [
        "▁{\"lat",
        -9.96001203588692
      ],
      [
        "▁it",
        -9.961038137770046
      ],
      [
        "▁\"Validate",
        -9.961102781045224
      ],
      [
        "000000000.0}",
        -9.962598513654859
      ],
      [
        "MA`",
        -9.963059374871865
      ],
      [
        "▁\"km\"}}}}",
        -9.964089301226956
      ],
      [
        "▁H",
        -9.966235332987457
      ],
      [
        "min_strike",
        -9.966390164738065
      ],
      [
        "▁equity",
        -9.966435064079775
      ],
      [
        "▁\"b\"",
        -9.966703180007569
      ],
      [
        "▁2021",
        -9.966761476641512
      ],
      [
        "-value",
        -9.967134490406554
      ],
      [
        "▁popular",
        -9.967392406967665
      ],
      [
        "3\"}",
        -9.967407215803252
      ],
      [
        "voltage",
        -9.96742939911677
      ],
      [
        "▁categories",
        -9.967479462007509
      ],
      [
        "h`",
        -9.967646087859238
      ],
      [
        "▁include:",
        -9.968401636040898
      ],
      [
        "start_date",
        -9.970225114499693
      ],
      [
        "L",
        -9.973060427838945
      ],
      [
        "▁stores",
        -9.97330398015713
      ],
      [
        "▁\"source",
        -9.973695391938996
      ],
      [
        "profile",
        -9.974732334253911
      ],
      [
        "linear",
        -9.975193304176006
      ],
      [
        "▁method",
        -9.975899708869308
      ],
      [
        "tic",
        -9.976237707973723
      ],
      [
        "▁elapsed",
        -9.977367198183632
      ],
      [
        "▁webcams",
        -9.978354020492187
      ],
      [
        "full",
        -9.978651772372864
      ],
      [
        "▁+",
        -9.98212499288245
      ],
      [
        "slug\"",
        -9.983270954481398
      ],
      [
        "image",
        -9.984143349438666
      ],
      [
        "▁terms",
        -9.9844637454736
      ],
      [
        "shoelace",
        -9.986124185194388
      ],
      [
        "airplanes",
        -9.987812316942836
      ],
      [
        "forest",
        -9.988054084241194
      ],
      [
        "▁How",
        -9.988251401506574
      ],
      [
        "le",
        -9.988591100118008
      ],
      [
        "▁contract",
        -9.99099057925823
      ],
      [
        "▁\"top_",
        -9.992334676698926
      ],
      [
        "▁t",
        -9.992577085861981
      ],
      [
        "▁website",
        -9.994253587506932
      ],
      [
        "▁\"project_",
        -9.994284728211568
      ],
      [
        "▁values.",
        -9.994978565730328
      ],
      [
        "▁solved",
        -9.998263457175337
      ],
      [
        "▁specified.",
        -10.001719989589999
      ],
      [
        "recipient",
        -10.002584310253852
      ],
      [
        "missing",
        -10.002593990021406
      ],
      [
        "▁Ma",
        -10.004911639647785
      ],
      [
        "▁Finance",
        -10.004914359064802
      ],
      [
        "▁service",
        -10.004937567265891
      ],
      [
        "▁\"polygon_",
        -10.00495554912693
      ],
      [
        "▁located.",
        -10.005090823421906
      ],
      [
        "▁\"find_missing_",
        -10.005184935065392
      ],
      [
        "▁coul",
        -10.00559161521878
      ],
      [
        "▁analyzed.",
        -10.006063821488683
      ],
      [
        "▁[[1",
        -10.006580574686833
      ],
      [
        "payor",
        -10.006727113091998
      ],
      [
        "▁\"list\"}}}}",
        -10.007162404928193
      ],
      [
        "_slug\"",
        -10.007802648996309
      ],
      [
        "skip",
        -10.008017621527298
      ],
      [
        "▁hashtag",
        -10.009663159741596
      ],
      [
        "▁change",
        -10.010377329355848
      ],
      [
        "hour",
        -10.010673163134065
      ],
      [
        "▁\"time_period_",
        -10.011645590712428
      ],
      [
        "ticker",
        -10.012304575500895
      ],
      [
        "_api",
        -10.013040276315767
      ],
      [
        "▁sources",
        -10.013214615229943
      ],
      [
        "Uni",
        -10.013241741910585
      ],
      [
        "▁`1",
        -10.013258070111437
      ],
      [
        "▁wh",
        -10.015442287502939
      ],
      [
        "▁\"whois",
        -10.015609900694981
      ],
      [
        "▁output.",
        -10.01561785356866
      ],
      [
        "▁0.05}",
        -10.016978702316203
      ],
      [
        "▁was",
        -10.017223345403265
      ],
      [
        "AR",
        -10.017606764113467
      ],
      [
        "database",
        -10.017850143170316
      ],
      [
        "▁cur",
        -10.017908024114003
      ],
      [
        "ion",
        -10.017985498230038
      ],
      [
        "▁asset",
        -10.01805356469526
      ],
      [
        "▁\"auto_complete",
        -10.018190313695689
      ],
      [
        "▁age",
        -10.01825459931723
      ],
      [
        "▁/",
        -10.018395762526513
      ],
      [
        "auto-complete",
        -10.019439220045344
      ],
      [
        "▁session",
        -10.02001096910521
      ],
      [
        "▁hourly",
        -10.02018430784427
      ],
      [
        "ed.",
        -10.020249419882521
      ],
      [
        "▁sequence",
        -10.020420068811466
      ],
      [
        "_order",
        -10.02065193162338
      ],
      [
        "▁share",
        -10.022140277672621
      ],
      [
        "▁{\"s",
        -10.023059379588904
      ],
      [
        "▁local",
        -10.023453773271815
      ],
      [
        "range\"",
        -10.023814406273399
      ],
      [
        "circle",
        -10.023911286693766
      ],
      [
        "ch",
        -10.024926383126719
      ],
      [
        "▁metadata",
        -10.025485039811059
      ],
      [
        "overview",
        -10.027270865920817
      ],
      [
        "deals",
        -10.027406205715536
      ],
      [
        "▁characters.",
        -10.029990829628
      ],
      [
        "Only",
        -10.030780409089521
      ],
      [
        "▁proxy",
        -10.032403706169758
      ],
      [
        "2}}",
        -10.032598108143846
      ],
      [
        "\"Th",
        -10.033016252610057
      ],
      [
        "▁competition",
        -10.034086197640189
      ],
      [
        "▁evolution",
        -10.037016113869441
      ],
      [
        "▁locale",
        -10.037298660576035
      ],
      [
        "▁price.",
        -10.039482682822964
      ],
      [
        "▁models",
        -10.039669830843515
      ],
      [
        "▁\"model",
        -10.042892144664098
      ],
      [
        "Y",
        -10.04290158729495
      ],
      [
        "▁following:",
        -10.043595624892589
      ],
      [
        "▁\"trapezoid\"}",
        -10.044940355106878
      ],
      [
        "▁\\",
        -10.045449799832166
      ],
      [
        "▁free",
        -10.045814361064297
      ],
      [
        "▁AI",
        -10.046467313930266
      ],
      [
        "▁weights",
        -10.047436132162163
      ],
      [
        "▁category.",
        -10.048168645781429
      ],
      [
        "er",
        -10.04871461490978
      ],
      [
        "currency",
        -10.0496307782644
      ],
      [
        "▁origin",
        -10.050736485650026
      ],
      [
        "▁\"get_user_",
        -10.050779338881965
      ],
      [
        "ious",
        -10.051112913384769
      ],
      [
        "▁ma",
        -10.052714572867878
      ],
      [
        "investment_",
        -10.053262271196687
      ],
      [
        "\"vector_",
        -10.053336715639539
      ],
      [
        "▁users",
        -10.055530878536977
      ],
      [
        "▁business",
        -10.056159511169124
      ],
      [
        "OD",
        -10.056481886106857
      ],
      [
        "▁'US'",
        -10.05706957099042
      ],
      [
        "▁\"season",
        -10.058754993029943
      ],
      [
        "simulate",
        -10.059944468792782
      ],
      [
        "\"interval",
        -10.060518900109928
      ],
      [
        "▁\"max",
        -10.060917209061486
      ],
      [
        "statistics",
        -10.061105363699083
      ],
      [
        "social",
        -10.061572099185316
      ],
      [
        "▁compound",
        -10.063273591111674
      ],
      [
        "ormula",
        -10.06453927610606
      ],
      [
        "rental",
        -10.064841511269924
      ],
      [
        "facilities",
        -10.065091802045508
      ],
      [
        "sports",
        -10.06527898146431
      ],
      [
        "[int",
        -10.065342693329072
      ],
      [
        "▁conversation",
        -10.065558483717236
      ],
      [
        "▁three",
        -10.065578455424367
      ],
      [
        "separated",
        -10.065698513238564
      ],
      [
        "▁\"year\"",
        -10.065812785851593
      ],
      [
        "HL",
        -10.06629155673285
      ],
      [
        "measure_distance",
        -10.06644805393461
      ],
      [
        "OL",
        -10.066611764662934
      ],
      [
        "▁\"Add",
        -10.067006550366795
      ],
      [
        "added",
        -10.06701680177805
      ],
      [
        "▁'1h'",
        -10.067040600083041
      ],
      [
        "▁support",
        -10.067139499864577
      ],
      [
        "▁'AAPL'",
        -10.067196931694134
      ],
      [
        "▁'metric'",
        -10.067266495426063
      ],
      [
        "▁\"Darwin\"}",
        -10.067359201021853
      ],
      [
        "▁'female'.",
        -10.06736673817698
      ],
      [
        "▁validated.",
        -10.067504371570045
      ],
      [
        "▁chunk",
        -10.06779728008608
      ],
      [
        "_details",
        -10.06850293661563
      ],
      [
        "ermitivity",
        -10.068826521277398
      ],
      [
        "▁ASIN",
        -10.069002241163503
      ],
      [
        "tell",
        -10.069139106887159
      ],
      [
        "▁Provide",
        -10.069955431622914
      ],
      [
        "▁Angeles",
        -10.069968069177257
      ],
      [
        "▁dataset",
        -10.070063068303721
      ],
      [
        "adjusted",
        -10.070536289844744
      ],
      [
        "▁\"mean",
        -10.071789561120653
      ],
      [
        "▁adjust",
        -10.074114792265185
      ],
      [
        "▁extract",
        -10.074998474344383
      ],
      [
        "▁etc.",
        -10.076730608090163
      ],
      [
        "best",
        -10.077553630725722
      ],
      [
        "▁keywords",
        -10.077565432138087
      ],
      [
        "▁\"h",
        -10.077981140895595
      ],
      [
        "▁difficulty",
        -10.078955065880466
      ],
      [
        "▁12345",
        -10.07988785145323
      ],
      [
        "▁attribute",
        -10.079984507609403
      ],
      [
        "▁requested.",
        -10.080140744689825
      ],
      [
        "▁generate",
        -10.081505437502498
      ],
      [
        "▁Check",
        -10.082109519741008
      ],
      [
        "team",
        -10.08237929746379
      ],
      [
        "▁states",
        -10.082866548450202
      ],
      [
        "▁{\"phone",
        -10.083014028589863
      ],
      [
        "▁IMDb",
        -10.08323167957824
      ],
      [
        "▁places",
        -10.083292074400823
      ],
      [
        "2D",
        -10.08345875953739
      ],
      [
        "▁feed",
        -10.086992801235645
      ],
      [
        "▁\"date",
        -10.0879787150588
      ],
      [
        "▁'A",
        -10.088962725496774
      ],
      [
        "▁[8",
        -10.09019100254571
      ],
      [
        "▁gender",
        -10.091404854364425
      ],
      [
        "▁types.",
        -10.091857599101766
      ],
      [
        ";",
        -10.09207750593512
      ],
      [
        "ld",
        -10.092857972742696
      ],
      [
        "▁supported",
        -10.09288904172573
      ],
      [
        "application/json",
        -10.09350253152442
      ],
      [
        "information",
        -10.093987190497524
      ],
      [
        "evolution",
        -10.09436801946544
      ],
      [
        "▁releases",
        -10.095334709216674
      ],
      [
        "▁alpha-2",
        -10.095437872947024
      ],
      [
        "mass",
        -10.095706157815266
      ],
      [
        "period",
        -10.096459351311282
      ],
      [
        "▁metrics",
        -10.097945709987302
      ],
      [
        "▁cm",
        -10.099249239788778
      ],
      [
        "▁forex",
        -10.099934279144119
      ],
      [
        "required",
        -10.100034135611331
      ],
      [
        "▁energy",
        -10.100571280757041
      ],
      [
        "▁available.",
        -10.10064444205333
      ],
      [
        "▁Supports",
        -10.100827952555203
      ],
      [
        "▁K",
        -10.101480012069379
      ],
      [
        "▁Identifi",
        -10.102278697352428
      ],
      [
        "▁prediction",
        -10.103427934991021
      ],
      [
        "▁place",
        -10.104221731504634
      ],
      [
        "esports",
        -10.106635125899759
      ],
      [
        "▁avatar",
        -10.109986692186608
      ],
      [
        "▁plate",
        -10.111235777470771
      ],
      [
        "AAPL",
        -10.112091923612663
      ],
      [
        "postcode\"",
        -10.112512196252316
      ],
      [
        "▁speed",
        -10.11335911470283
      ],
      [
        "2x2",
        -10.113485701017732
      ],
      [
        "▁stocks",
        -10.113744992875478
      ],
      [
        "average",
        -10.115529093297548
      ],
      [
        "▁\"end_l",
        -10.11747942341529
      ],
      [
        "minute",
        -10.11841033193323
      ],
      [
        "via",
        -10.119811188486468
      ],
      [
        "inecraft",
        -10.122548874345476
      ],
      [
        "▁files",
        -10.123595225347346
      ],
      [
        "▁None",
        -10.124508260075045
      ],
      [
        "flatten",
        -10.127246546448706
      ],
      [
        "▁recipe",
        -10.128262103171766
      ],
      [
        "▁\"products_",
        -10.131159134729112
      ],
      [
        "▁[0.",
        -10.131709495336708
      ],
      [
        "dice_roll",
        -10.131748386779627
      ],
      [
        "occurrences",
        -10.131748518210715
      ],
      [
        ":image,location",
        -10.131749140796597
      ],
      [
        "learning",
        -10.131755662714987
      ],
      [
        "contingency",
        -10.131788976561403
      ],
      [
        "month",
        -10.132655274763831
      ],
      [
        "▁2020",
        -10.133374493172617
      ],
      [
        "soccer",
        -10.133464724974816
      ],
      [
        "▁applied",
        -10.134396124886655
      ],
      [
        "▁day",
        -10.134817733301512
      ],
      [
        "▁world",
        -10.134966800657477
      ],
      [
        "▁'https://www.",
        -10.135361129103433
      ],
      [
        "▁help",
        -10.135424719683778
      ],
      [
        "▁\"to",
        -10.135553186051187
      ],
      [
        "▁0.95",
        -10.136506130313093
      ],
      [
        "▁grow",
        -10.136724371697142
      ],
      [
        "▁'4",
        -10.136912711403234
      ],
      [
        "▁football",
        -10.136996248851602
      ],
      [
        "▁Jan",
        -10.13711608394479
      ],
      [
        "▁predict",
        -10.13826854778486
      ],
      [
        "cooking",
        -10.13828309384694
      ],
      [
        "▁'de'",
        -10.138348745317987
      ],
      [
        "▁3166-1",
        -10.138377584468175
      ],
      [
        "▁block",
        -10.138388731656384
      ],
      [
        "▁\"geocode",
        -10.13888593514724
      ],
      [
        "_unit",
        -10.139230330543
      ],
      [
        "how",
        -10.139328286773097
      ],
      [
        "▁quantities",
        -10.1400112991102
      ],
      [
        "▁{\"hotel",
        -10.141421446413071
      ],
      [
        "many",
        -10.142105238360442
      ],
      [
        "q",
        -10.142766672207753
      ],
      [
        "▁condition",
        -10.142906057933194
      ],
      [
        "▁\"item",
        -10.143072314647771
      ],
      [
        "▁See",
        -10.143159893629045
      ],
      [
        "▁acceleration",
        -10.144198222978918
      ],
      [
        "Simulate",
        -10.144695923788815
      ],
      [
        "▁\"color",
        -10.144837114532386
      ],
      [
        "▁\"find_p",
        -10.145227374147453
      ],
      [
        "per",
        -10.145270312902294
      ],
      [
        "▁peak",
        -10.145402443760593
      ],
      [
        "▁under",
        -10.145702606774673
      ],
      [
        "&",
        -10.145734370079065
      ],
      [
        "▁3]",
        -10.14771844316358
      ],
      [
        "▁Geocod",
        -10.148114445234212
      ],
      [
        "▁10]",
        -10.148499027647874
      ],
      [
        "▁product.",
        -10.149429940789307
      ],
      [
        "old",
        -10.149505430711457
      ],
      [
        "_detail",
        -10.150894219320362
      ],
      [
        "code\"",
        -10.151470068363432
      ],
      [
        "1min",
        -10.15153471757237
      ],
      [
        "▁car",
        -10.153832227065966
      ],
      [
        "▁sedentary",
        -10.155834208530388
      ],
      [
        "▁\"list",
        -10.155893508004226
      ],
      [
        "time",
        -10.156776993933002
      ],
      [
        "▁entity",
        -10.157264496962117
      ],
      [
        "▁history",
        -10.157810413182728
      ],
      [
        "SE",
        -10.160937073451954
      ],
      [
        "▁\"distance",
        -10.161514611861099
      ],
      [
        "▁{\"term",
        -10.16299256312431
      ],
      [
        "_with_",
        -10.16449549768816
      ],
      [
        "location\"",
        -10.165522994763075
      ],
      [
        "first_n",
        -10.166442134714591
      ],
      [
        "▁sign",
        -10.166978857029092
      ],
      [
        "year",
        -10.167509102706557
      ],
      [
        "product",
        -10.167541988507141
      ],
      [
        "▁endpoints",
        -10.167901540908508
      ],
      [
        "cost",
        -10.16920131252423
      ],
      [
        "start",
        -10.169988298104656
      ],
      [
        "▁population.",
        -10.17148806438011
      ],
      [
        "building",
        -10.172533288153154
      ],
      [
        "▁company.",
        -10.172736590608501
      ],
      [
        "▁lookup",
        -10.175595372430895
      ],
      [
        "price",
        -10.175612849306912
      ],
      [
        "▁\"q",
        -10.177235595408492
      ],
      [
        "dividend\"",
        -10.17751945456153
      ],
      [
        "1week",
        -10.17794304498528
      ],
      [
        "▁info",
        -10.178013354186843
      ],
      [
        "▁use.",
        -10.180379281351469
      ],
      [
        "ies",
        -10.183843789040207
      ],
      [
        "dataset",
        -10.186649826093078
      ],
      [
        "▁performance",
        -10.187603194891693
      ],
      [
        "▁theme",
        -10.18771493516212
      ],
      [
        "stats",
        -10.187775302574316
      ],
      [
        "king",
        -10.194247765927795
      ],
      [
        "get_",
        -10.19428429960371
      ],
      [
        "▁\"weight",
        -10.194947886706355
      ],
      [
        "▁Database",
        -10.194950639954083
      ],
      [
        "[",
        -10.19536640226447
      ],
      [
        "▁VIN",
        -10.196558751551466
      ],
      [
        "tracking",
        -10.196879911078153
      ],
      [
        "eposit",
        -10.198143121089052
      ],
      [
        "followers",
        -10.198381834667055
      ],
      [
        "PF",
        -10.198966390484316
      ],
      [
        "▁Number",
        -10.199085668180132
      ],
      [
        "ent",
        -10.19910641356288
      ],
      [
        "▁\"factor\"",
        -10.199439664403867
      ],
      [
        "_sorted_",
        -10.20095344415144
      ],
      [
        "string",
        -10.202982052685964
      ],
      [
        "\\u230",
        -10.203178522735428
      ],
      [
        "palindromic",
        -10.203189460837837
      ],
      [
        "standard_",
        -10.203577009141178
      ],
      [
        "max_expiry",
        -10.203618603335537
      ],
      [
        "goods_id",
        -10.203775116063557
      ],
      [
        "eak_",
        -10.203886161855266
      ],
      [
        "SEO",
        -10.204128624753675
      ],
      [
        "multiply",
        -10.204253808055586
      ],
      [
        "Multipl",
        -10.20434344683515
      ],
      [
        "ctional",
        -10.204401359822004
      ],
      [
        "function\"",
        -10.20467398146533
      ],
      [
        "▁address.",
        -10.204710475898963
      ],
      [
        "▁ignor",
        -10.204885014064589
      ],
      [
        "▁Tesla",
        -10.204887737756916
      ],
      [
        "trivia",
        -10.205011601101008
      ],
      [
        "▁partner",
        -10.205073709803836
      ],
      [
        "▁ingredient",
        -10.20515873164917
      ],
      [
        "▁particular",
        -10.205230181693075
      ],
      [
        "▁'standard'",
        -10.205255078267864
      ],
      [
        "▁centimeters",
        -10.205265258756917
      ],
      [
        "▁\"validate_",
        -10.205363315845858
      ],
      [
        "sku\"",
        -10.205385647605086
      ],
      [
        "▁'Darwin'",
        -10.205397296100989
      ],
      [
        "male'",
        -10.20578998059574
      ],
      [
        "▁\"getrandom",
        -10.20605773986112
      ],
      [
        ":NASDAQ",
        -10.206506693963023
      ],
      [
        "p_address\"",
        -10.207771356026651
      ],
      [
        "min_expiry",
        -10.208239959515524
      ],
      [
        "▁2022",
        -10.208354090327767
      ],
      [
        "▁exclude",
        -10.210052534905264
      ],
      [
        "floor",
        -10.210187468207582
      ],
      [
        "▁hav",
        -10.210384256714978
      ],
      [
        "▁{\"zip",
        -10.210632540209865
      ],
      [
        "▁\"copper\"}",
        -10.210992424114076
      ],
      [
        "▁ETF",
        -10.213457740836585
      ],
      [
        "ge",
        -10.213467311600551
      ],
      [
        "▁French",
        -10.213728767196885
      ],
      [
        "-se",
        -10.214109504377596
      ],
      [
        "▁\"t",
        -10.214142805768471
      ],
      [
        "▁\"base",
        -10.214182345096294
      ],
      [
        "▁\"analysis_",
        -10.214332816650947
      ],
      [
        "▁League",
        -10.214352296231198
      ],
      [
        "detail",
        -10.214588099003555
      ],
      [
        "▁\"a",
        -10.215316204508037
      ],
      [
        "end",
        -10.215596606586931
      ],
      [
        "_cards\"",
        -10.217620630226913
      ],
      [
        "▁league",
        -10.218955483718274
      ],
      [
        "available\"",
        -10.220411788590788
      ],
      [
        "▁Alpha",
        -10.220998872906765
      ],
      [
        "present",
        -10.222404718548445
      ],
      [
        "gas",
        -10.222646883440573
      ],
      [
        "category",
        -10.223011094402093
      ],
      [
        "▁mode",
        -10.223324921827816
      ],
      [
        "▁validate",
        -10.2238023670169
      ],
      [
        "quarterly",
        -10.225036267214684
      ],
      [
        "s',",
        -10.226211419574483
      ],
      [
        "▁\"List[float]\"",
        -10.227030665358189
      ],
      [
        "▁true}}}}",
        -10.227426955652652
      ],
      [
        "▁holidays",
        -10.227510360074552
      ],
      [
        "00",
        -10.22780035436416
      ],
      [
        "▁convert.",
        -10.228005992335515
      ],
      [
        "_small",
        -10.228056641258288
      ],
      [
        "▁{\"title",
        -10.228730785105762
      ],
      [
        "▁trend",
        -10.228972313060426
      ],
      [
        "▁phrase.",
        -10.22897269149961
      ],
      [
        "▁\"tournament",
        -10.231011837165497
      ],
      [
        "▁4}}",
        -10.231533411786277
      ],
      [
        "▁filters",
        -10.232169876926747
      ],
      [
        "▁my",
        -10.23250601621405
      ],
      [
        "▁events.",
        -10.232724154337898
      ],
      [
        "▁radius.",
        -10.23357644670228
      ],
      [
        "\"str",
        -10.234554548624443
      ],
      [
        "▁She",
        -10.234860232534837
      ],
      [
        "conditions\"",
        -10.235592493080055
      ],
      [
        "▁retriev",
        -10.23583206237295
      ],
      [
        "▁vectors",
        -10.236230641891925
      ],
      [
        "▁100.",
        -10.237407964904833
      ],
      [
        "▁5%",
        -10.237999221846609
      ],
      [
        "▁t-",
        -10.239467470998502
      ],
      [
        "Merge",
        -10.240389142043789
      ],
      [
        "▁rank",
        -10.240418743114727
      ],
      [
        "▁payment",
        -10.241016424913903
      ],
      [
        "eg",
        -10.241037649329618
      ],
      [
        "G",
        -10.242946250511249
      ],
      [
        "pet",
        -10.243150712782983
      ],
      [
        "▁Only",
        -10.244257900853937
      ],
      [
        "▁gro",
        -10.244626033629773
      ],
      [
        "▁call",
        -10.246421715265619
      ],
      [
        "▁11",
        -10.247006539192274
      ],
      [
        "total",
        -10.24764314016742
      ],
      [
        "low",
        -10.248968685090915
      ],
      [
        "cy",
        -10.250629219723017
      ],
      [
        "digit",
        -10.250873110847852
      ],
      [
        "▁constant",
        -10.251069071067349
      ],
      [
        "▁initials",
        -10.251526039906071
      ],
      [
        "gender\"",
        -10.252203681917285
      ],
      [
        "▁keyword.",
        -10.25237908936027
      ],
      [
        "▁photos",
        -10.253138571872821
      ],
      [
        "stic",
        -10.253623576424573
      ],
      [
        "ip\"",
        -10.253883015162884
      ],
      [
        "▁array",
        -10.254432224910115
      ],
      [
        "▁{\"code",
        -10.255542046660901
      ],
      [
        "{",
        -10.256972082047536
      ],
      [
        "derivative",
        -10.257429907920283
      ],
      [
        "▁20}",
        -10.257445424997872
      ],
      [
        "▁auto-complete",
        -10.25946994703045
      ],
      [
        "dictionaries",
        -10.259581370218587
      ],
      [
        "▁air",
        -10.260091182627061
      ],
      [
        "▁'2",
        -10.260352613835414
      ],
      [
        "scale",
        -10.261019759302638
      ],
      [
        "▁true}}",
        -10.26108040736683
      ],
      [
        "▁\"List[List[",
        -10.262607057548157
      ],
      [
        "_draw",
        -10.2627167435965
      ],
      [
        "▁Example",
        -10.265709494998678
      ],
      [
        "medium",
        -10.266148068856433
      ],
      [
        "▁\"url",
        -10.266584064925206
      ],
      [
        "cursor",
        -10.26681301344549
      ],
      [
        "income\"",
        -10.271599666820764
      ],
      [
        "Generate",
        -10.27167857516136
      ],
      [
        "quarterly_",
        -10.273849842384992
      ],
      [
        "mac",
        -10.274500958645387
      ],
      [
        "faces",
        -10.274897250735696
      ],
      [
        "domain",
        -10.274930419403155
      ],
      [
        "▁actors",
        -10.27510549780646
      ],
      [
        "▁individual",
        -10.275874160454707
      ],
      [
        "▁sticker",
        -10.277065718706726
      ],
      [
        "global",
        -10.277901628345063
      ],
      [
        "mujtabah258\"}}}}",
        -10.280100048995969
      ],
      [
        "cricket",
        -10.28010008114648
      ],
      [
        "RSI",
        -10.280166947226672
      ],
      [
        "interval\"",
        -10.280357614275221
      ],
      [
        "science",
        -10.28035890031472
      ],
      [
        "basketball",
        -10.280515583691708
      ],
      [
        "▁\"Pag",
        -10.280672555429913
      ],
      [
        "events\"",
        -10.280685289899052
      ],
      [
        "▁Index",
        -10.281599158051222
      ],
      [
        "_by_year",
        -10.28165320590507
      ],
      [
        "▁gallon",
        -10.28173912284405
      ],
      [
        "fake",
        -10.281821253496494
      ],
      [
        "▁partial",
        -10.281849057563498
      ],
      [
        "▁anagrams",
        -10.28190007307886
      ],
      [
        "▁\"is_anagram",
        -10.282022866558892
      ],
      [
        "▁y-value",
        -10.282240951995504
      ],
      [
        "▁command",
        -10.282241553135112
      ],
      [
        "▁queried",
        -10.282415688465575
      ],
      [
        "▁\"name",
        -10.282602832555789
      ],
      [
        "▁kilograms",
        -10.284221636879275
      ],
      [
        "static",
        -10.284674749072904
      ],
      [
        "_interest",
        -10.28498243432404
      ],
      [
        "▁'MSFT'",
        -10.285070231354151
      ],
      [
        "eight",
        -10.285505406016668
      ],
      [
        "▁sentence",
        -10.28576298745051
      ],
      [
        "istics",
        -10.286800969178337
      ],
      [
        "▁digits.",
        -10.28757159332406
      ],
      [
        "brand",
        -10.28778584835782
      ],
      [
        "validation",
        -10.289930127481327
      ],
      [
        "business",
        -10.290188423973447
      ],
      [
        "▁\"AAPL",
        -10.290217323635375
      ],
      [
        "reverse",
        -10.290322307220302
      ],
      [
        "▁currencies",
        -10.290409910183806
      ],
      [
        "5min",
        -10.29080151193542
      ],
      [
        "▁car.",
        -10.291130608716895
      ],
      [
        "entral",
        -10.29156951216462
      ],
      [
        "escription\"",
        -10.291689340735616
      ],
      [
        "▁'B",
        -10.29238653433477
      ],
      [
        "▁\"sort_",
        -10.292503247660665
      ],
      [
        "divisor",
        -10.292859775308823
      ],
      [
        "▁sentence.",
        -10.293112060214312
      ],
      [
        "▁allow",
        -10.294788274778881
      ],
      [
        "▁square",
        -10.294881759533155
      ],
      [
        "currency_code",
        -10.295250627317555
      ],
      [
        "witter",
        -10.296227321582268
      ],
      [
        "▁\"json\"}",
        -10.296328346427915
      ],
      [
        "▁single-",
        -10.297100390152108
      ],
      [
        "▁YYYY-MM-DD",
        -10.29749379334606
      ],
      [
        "▁platform",
        -10.297553356855744
      ],
      [
        "▁'tt'",
        -10.29909278618041
      ],
      [
        "_prediction",
        -10.299249881746332
      ],
      [
        "M",
        -10.299313685026236
      ],
      [
        "▁root",
        -10.299473573103352
      ],
      [
        "▁duplicate",
        -10.300445127161977
      ],
      [
        "▁series.",
        -10.30071620584441
      ],
      [
        "▁videos.",
        -10.301552283816159
      ],
      [
        "▁un",
        -10.302183833185335
      ],
      [
        "▁select",
        -10.303344273002274
      ],
      [
        "▁\"sample",
        -10.30378542715336
      ],
      [
        "▁press",
        -10.305214842622066
      ],
      [
        "word",
        -10.306624491314519
      ],
      [
        "order",
        -10.308455986992113
      ],
      [
        "ity",
        -10.309271498846512
      ],
      [
        "▁images.",
        -10.309316144262095
      ],
      [
        "▁percentage",
        -10.309408419538666
      ],
      [
        "\"std_dev",
        -10.312907671105327
      ],
      [
        "▁catalog",
        -10.313881296259336
      ],
      [
        "▁account",
        -10.314474519185916
      ],
      [
        "two",
        -10.315011560913112
      ],
      [
        "▁On",
        -10.315973075793654
      ],
      [
        "▁90",
        -10.31764526726271
      ],
      [
        "▁access",
        -10.31833287511985
      ],
      [
        "reviews\"",
        -10.31847600399911
      ],
      [
        "▁\"Lo",
        -10.319251882536498
      ],
      [
        "iation",
        -10.320235147981087
      ],
      [
        "it",
        -10.321102608092477
      ],
      [
        "cat_id",
        -10.321750808157976
      ],
      [
        "units\"",
        -10.321789406713116
      ],
      [
        "▁frame",
        -10.322340549376664
      ],
      [
        "Date",
        -10.323703522892737
      ],
      [
        "▁trends",
        -10.325011453983162
      ],
      [
        "▁ski",
        -10.325193417089569
      ],
      [
        "d'.",
        -10.327042849790107
      ],
      [
        "▁\"start_",
        -10.32743557243001
      ],
      [
        "▁\"product_",
        -10.32754365743532
      ],
      [
        "▁type.",
        -10.328073876774774
      ],
      [
        "▁see",
        -10.328501044120912
      ],
      [
        "▁Twit",
        -10.330287001056366
      ],
      [
        "▁meta",
        -10.330469118117945
      ],
      [
        "/title/find",
        -10.33056111614908
      ],
      [
        "▁Book",
        -10.330678804680906
      ],
      [
        "▁palindrome",
        -10.331885696159198
      ],
      [
        "▁\"get_products",
        -10.333907564170518
      ],
      [
        "▁manufacturer",
        -10.334478097371663
      ],
      [
        "▁food",
        -10.334549182369383
      ],
      [
        "_all_",
        -10.334759418944994
      ],
      [
        "▁card",
        -10.335205179120505
      ],
      [
        "▁observations",
        -10.336094421109003
      ],
      [
        "▁\"4",
        -10.336874109569354
      ],
      [
        "_room",
        -10.336940363098206
      ],
      [
        "▁disposable",
        -10.337762268550305
      ],
      [
        "▁test",
        -10.338852601059994
      ],
      [
        "meeting",
        -10.339088048134936
      ],
      [
        "▁points.",
        -10.339657820622282
      ],
      [
        "age\"",
        -10.34032861525897
      ],
      [
        "▁default",
        -10.341544794082392
      ],
      [
        "▁used.",
        -10.341933027422282
      ],
      [
        "▁breeds",
        -10.341983999166297
      ],
      [
        "▁result.",
        -10.342710462520095
      ],
      [
        "basic",
        -10.342869689572677
      ],
      [
        "▁\"state",
        -10.343401933488344
      ],
      [
        "cons",
        -10.343947129136783
      ],
      [
        "ive",
        -10.344439611325416
      ],
      [
        "models",
        -10.345099092172198
      ],
      [
        "▁City",
        -10.345360502481265
      ],
      [
        "_stats",
        -10.34585161530885
      ],
      [
        "▁agent",
        -10.346272773048625
      ],
      [
        "ter",
        -10.347289140182086
      ],
      [
        "play",
        -10.348029285137283
      ],
      [
        "acceleration",
        -10.348296734200641
      ],
      [
        "_hotel_",
        -10.348607628255227
      ],
      [
        "-to-",
        -10.350254674863834
      ],
      [
        "▁permutation",
        -10.352362917189176
      ],
      [
        "▁server",
        -10.352585269208365
      ],
      [
        "▁cat",
        -10.35284775256481
      ],
      [
        "quantities",
        -10.354248112747833
      ],
      [
        "▁\"search_by_",
        -10.354257666754703
      ],
      [
        "alpha",
        -10.355696373737416
      ],
      [
        "▁directory",
        -10.356133309659937
      ],
      [
        "_from_",
        -10.356633145968438
      ],
      [
        "Refer",
        -10.35698446509149
      ],
      [
        "tial",
        -10.35778694963173
      ],
      [
        "ten",
        -10.35831137233617
      ],
      [
        "d2",
        -10.35896607993692
      ],
      [
        "▁\".",
        -10.359621351982677
      ],
      [
        "fields",
        -10.359751645003044
      ],
      [
        "▁genres",
        -10.360041610525471
      ],
      [
        "▁\"user",
        -10.360191103245242
      ],
      [
        "ronu",
        -10.360723949668735
      ],
      [
        "▁synonyms",
        -10.361542974779866
      ],
      [
        "▁track",
        -10.36183625625642
      ],
      [
        "_rate",
        -10.361997274650413
      ],
      [
        "▁\"Optional",
        -10.362274419628134
      ],
      [
        "▁document",
        -10.362915846381913
      ],
      [
        "efficien",
        -10.363432716698695
      ],
      [
        "2202285484176751",
        -10.363433382329399
      ],
      [
        "ozzartbet.com.co",
        -10.363433382329404
      ],
      [
        "Ethereum",
        -10.36343350966416
      ],
      [
        "ltimate",
        -10.36343360581008
      ],
      [
        "▁\"Flag",
        -10.363433614776424
      ],
      [
        "Biolog",
        -10.363434164456715
      ],
      [
        "▁'IN'",
        -10.363462516488557
      ],
      [
        "▁\"is",
        -10.363497079445501
      ],
      [
        "_by_state",
        -10.363504909614171
      ],
      [
        "▁0.07",
        -10.363537721175208
      ],
      [
        "neuronal",
        -10.363787556943679
      ],
      [
        "▁found",
        -10.363853484903714
      ],
      [
        "cast_name\"",
        -10.36412401005951
      ],
      [
        "▁b",
        -10.364695517352061
      ],
      [
        "▁held",
        -10.364729991538834
      ],
      [
        "weight",
        -10.36491407051158
      ],
      [
        "▁compute",
        -10.365008044512365
      ],
      [
        "▁against",
        -10.365015976648722
      ],
      [
        "▁\"independent_",
        -10.365305206473142
      ],
      [
        "▁identify",
        -10.365315718972083
      ],
      [
        "loud",
        -10.365749307031027
      ],
      [
        "▁\"match",
        -10.36608791739722
      ],
      [
        "_greater",
        -10.366107982815539
      ],
      [
        "max_",
        -10.366392955992593
      ],
      [
        "▁differen",
        -10.366417161411963
      ],
      [
        "▁{\"arr",
        -10.36669924667453
      ],
      [
        "▁'fr'",
        -10.366887827143419
      ],
      [
        "▁translated",
        -10.367717746219856
      ],
      [
        "▁draw",
        -10.368776821038239
      ],
      [
        "▁float]\"}",
        -10.36913833407931
      ],
      [
        "▁\"Set",
        -10.369156892420975
      ],
      [
        "▁clea",
        -10.36943835386845
      ],
      [
        "▁\"50\"}}}}",
        -10.369887517925374
      ],
      [
        "_for_",
        -10.37048097357869
      ],
      [
        "▁\"lng",
        -10.371045256922102
      ],
      [
        "▁contest",
        -10.371263714527018
      ],
      [
        "▁Hotel",
        -10.372258335458897
      ],
      [
        "▁com",
        -10.372355844706846
      ],
      [
        "▁\"Keyword",
        -10.372776609413565
      ],
      [
        "▁conversion",
        -10.372809555646054
      ],
      [
        "consecutive",
        -10.372917945514502
      ],
      [
        "▁\"dict",
        -10.37299336234793
      ],
      [
        "▁Germany",
        -10.373354811379738
      ],
      [
        "▁[10",
        -10.374027982263746
      ],
      [
        "▁\"ID",
        -10.37416635402634
      ],
      [
        "ountry",
        -10.374732135157023
      ],
      [
        "ian",
        -10.375053878942776
      ],
      [
        "results",
        -10.375251510746233
      ],
      [
        "▁\"duration",
        -10.375372657276962
      ],
      [
        "▁France",
        -10.375865904663858
      ],
      [
        "fixtures",
        -10.375891042182708
      ],
      [
        "▁\"sign",
        -10.37605331531163
      ],
      [
        "els.",
        -10.376059804798965
      ],
      [
        "▁languages",
        -10.376639356506443
      ],
      [
        "▁\"n",
        -10.37749205438485
      ],
      [
        "▁person.",
        -10.380132594944785
      ],
      [
        "▁mode.",
        -10.381139650110736
      ],
      [
        "▁{\"t",
        -10.381720655747802
      ],
      [
        "light_",
        -10.382258341471
      ],
      [
        "▁elevation",
        -10.382334599623334
      ],
      [
        "▁[[",
        -10.382341877317202
      ],
      [
        "01",
        -10.382994888672338
      ],
      [
        "_value",
        -10.384850217501286
      ],
      [
        "▁{\"sample",
        -10.385234877314243
      ],
      [
        "▁0.05.",
        -10.385460281874156
      ],
      [
        "▁(O",
        -10.385889896076844
      ],
      [
        "▁link",
        -10.386292676423198
      ],
      [
        "▁registered",
        -10.386502574304957
      ],
      [
        "▁English.",
        -10.387119797332069
      ],
      [
        "distance",
        -10.387151629756836
      ],
      [
        "▁{\"user",
        -10.387214618146206
      ],
      [
        "▁Maps",
        -10.387493790668564
      ],
      [
        "▁\"st",
        -10.387895855826748
      ],
      [
        "▁\"timestamp",
        -10.388233488748009
      ],
      [
        "▁World",
        -10.388396402982671
      ],
      [
        "▁200.",
        -10.38860391881319
      ],
      [
        "matrix_",
        -10.389589459154582
      ],
      [
        "15min",
        -10.39265083183976
      ],
      [
        "▁\"O",
        -10.394422661879066
      ],
      [
        "▁plan",
        -10.394956659622064
      ],
      [
        "_info",
        -10.395341219089502
      ],
      [
        "API.",
        -10.395373551479478
      ],
      [
        "▁suggestions.",
        -10.395673129637071
      ],
      [
        "▁\"get_a",
        -10.397504369802709
      ],
      [
        "ting",
        -10.398656852293513
      ],
      [
        "▁station",
        -10.39930308562779
      ],
      [
        "sive",
        -10.400149923979985
      ],
      [
        "country\"",
        -10.400497854410323
      ],
      [
        "▁market.",
        -10.400824880617018
      ],
      [
        "▁sentiment",
        -10.402572956333922
      ],
      [
        "points",
        -10.404277819900683
      ],
      [
        "TA",
        -10.405765429015398
      ],
      [
        "▁news.",
        -10.406193932068094
      ],
      [
        "▁distri",
        -10.406578935118505
      ],
      [
        "case",
        -10.407096266516072
      ],
      [
        "BA",
        -10.407297761648834
      ],
      [
        "▁strings",
        -10.408423430102586
      ],
      [
        "annually.",
        -10.409427680653819
      ],
      [
        "▁codes.",
        -10.412239879011345
      ],
      [
        "main_",
        -10.41246193836695
      ],
      [
        "▁180",
        -10.416087119346317
      ],
      [
        "▁pay",
        -10.417607504117335
      ],
      [
        "12",
        -10.41826250202242
      ],
      [
        "style",
        -10.418387442297973
      ],
      [
        "▁\"is_a",
        -10.419289626518491
      ],
      [
        "▁items.",
        -10.419730279519037
      ],
      [
        "sugar",
        -10.420051069655225
      ],
      [
        "▁chapter",
        -10.420089522623304
      ],
      [
        "YYYY-MM-DD",
        -10.422307038072564
      ],
      [
        "lookup\"",
        -10.42251466710555
      ],
      [
        "order_",
        -10.422590147847647
      ],
      [
        "▁cele",
        -10.4231568050816
      ],
      [
        "posts",
        -10.424484789758875
      ],
      [
        "text",
        -10.425420574650875
      ],
      [
        "▁120",
        -10.425759378809524
      ],
      [
        "range",
        -10.428262871880957
      ],
      [
        "google.com\"}}}}",
        -10.428460998390943
      ],
      [
        "▁USD",
        -10.42908173432506
      ],
      [
        "directions",
        -10.42947177790521
      ],
      [
        "1727",
        -10.429491013908569
      ],
      [
        "▁\"average",
        -10.429685494375471
      ],
      [
        "▁\"point",
        -10.430824549945918
      ],
      [
        "▁destination",
        -10.432553784956177
      ],
      [
        "▁\"user_",
        -10.43397963930529
      ],
      [
        "ource",
        -10.434058627045447
      ],
      [
        "integrate",
        -10.434338558690822
      ],
      [
        "▁`admin",
        -10.435889325559753
      ],
      [
        "radio",
        -10.436011143566372
      ],
      [
        "▁meaning",
        -10.436297067595824
      ],
      [
        "form",
        -10.437725463704048
      ],
      [
        "(",
        -10.440231110038539
      ],
      [
        "▁servers",
        -10.44049650486943
      ],
      [
        "▁perform",
        -10.4411229453106
      ],
      [
        "▁seasons",
        -10.441468036045592
      ],
      [
        "▁\"Re",
        -10.442469032412495
      ],
      [
        "_in_",
        -10.443016850189082
      ],
      [
        "unit",
        -10.443643723152382
      ],
      [
        "um",
        -10.44378617458359
      ],
      [
        "▁\"time_period",
        -10.445907985481465
      ],
      [
        "method",
        -10.446896976108224
      ],
      [
        "Pi",
        -10.447223883007469
      ],
      [
        ".net",
        -10.447435357368692
      ],
      [
        "Square",
        -10.448458426105814
      ],
      [
        "▁currency.",
        -10.448923927586732
      ],
      [
        "expiry",
        -10.449027341924504
      ],
      [
        "etflix",
        -10.44969663008255
      ],
      [
        "ctivity",
        -10.450649821054293
      ],
      [
        "chunk",
        -10.450731823512367
      ],
      [
        "headlines",
        -10.450770397182062
      ],
      [
        "▁continent",
        -10.45239267745057
      ],
      [
        "▁calculated",
        -10.454082529145165
      ],
      [
        "▁faces",
        -10.45431357247601
      ],
      [
        "compatibility",
        -10.454342473238963
      ],
      [
        "Estimate",
        -10.454342474418397
      ],
      [
        "hockey",
        -10.454342797698573
      ],
      [
        "▁exact",
        -10.454344065892364
      ],
      [
        "urrency_num_code",
        -10.45434466418006
      ],
      [
        "▁\"Format",
        -10.454347697667842
      ],
      [
        "▁UPC",
        -10.454348428676274
      ],
      [
        "vendor",
        -10.454351301194482
      ],
      [
        "▁Open",
        -10.45435740747897
      ],
      [
        "▁Kanji",
        -10.454369275663609
      ],
      [
        "▁Time",
        -10.454394129543942
      ],
      [
        "nearest",
        -10.454476259922513
      ],
      [
        "▁\"true\"}}}}",
        -10.45449217241512
      ],
      [
        "▁formats",
        -10.454524412823151
      ],
      [
        "▁timeframe",
        -10.45455377441805
      ],
      [
        "published",
        -10.45460912506869
      ],
      [
        "money",
        -10.454635993176183
      ],
      [
        "▁\"x",
        -10.454678201616012
      ],
      [
        "▁please",
        -10.454758360766878
      ],
      [
        "amples_t",
        -10.454801745583628
      ],
      [
        "▁'asc'",
        -10.454940781932347
      ],
      [
        "flour",
        -10.455143062656713
      ],
      [
        "▁approximat",
        -10.455884966081278
      ],
      [
        "▁Oscillator",
        -10.455887098733225
      ],
      [
        "▁\"List[Tuple[",
        -10.455996315483436
      ],
      [
        "▁\"distance_unit",
        -10.456015932101032
      ],
      [
        "▁'US').",
        -10.456026690517604
      ],
      [
        "▁record",
        -10.456236288893406
      ],
      [
        "▁consecutively",
        -10.456339661093242
      ],
      [
        "mortgage",
        -10.45666977556985
      ],
      [
        "▁successes",
        -10.457047573161066
      ],
      [
        "▁(1-",
        -10.457319453150562
      ],
      [
        "▁transactions",
        -10.457408330580206
      ],
      [
        "moving",
        -10.457525753778132
      ],
      [
        "software",
        -10.458194986702855
      ],
      [
        "▁URL.",
        -10.458226451476168
      ],
      [
        "making",
        -10.458623785547013
      ],
      [
        "▁relevan",
        -10.458760705130604
      ],
      [
        "▁'id'.",
        -10.458816659458634
      ],
      [
        "▁fetched",
        -10.459920031093915
      ],
      [
        "▁\"target_",
        -10.460788350094337
      ],
      [
        "▁equal",
        -10.460804405454825
      ],
      [
        "▁domains",
        -10.461814723642924
      ],
      [
        "▁bank",
        -10.461944145638562
      ],
      [
        "▁USD.",
        -10.462461458335861
      ],
      [
        "study",
        -10.462826890560313
      ],
      [
        "bits",
        -10.46305702135807
      ],
      [
        "baby",
        -10.463436298255644
      ],
      [
        "d'",
        -10.46357572909738
      ],
      [
        "▁resources",
        -10.463975317747028
      ],
      [
        "▁[0",
        -10.46403663610286
      ],
      [
        "▁'1'.",
        -10.464479488511037
      ],
      [
        "lose'",
        -10.464626819448153
      ],
      [
        "▁individual.",
        -10.465094818003609
      ],
      [
        "matches",
        -10.46644051014447
      ],
      [
        "▁down",
        -10.46672158673607
      ],
      [
        "brand\"",
        -10.466828801271497
      ],
      [
        "▁faces.",
        -10.467265602197262
      ],
      [
        "▁milliseconds",
        -10.46789113486664
      ],
      [
        "▁\"get_product",
        -10.469300357342306
      ],
      [
        "▁\"2\"}}}}",
        -10.469998620559009
      ],
      [
        "3'",
        -10.47001493890994
      ],
      [
        "▁{\"state",
        -10.470460456266506
      ],
      [
        "▁\"Categor",
        -10.471658100114789
      ],
      [
        "▁12.",
        -10.472182943992369
      ],
      [
        "encoded",
        -10.472572957928868
      ],
      [
        "▁4]",
        -10.473593601645858
      ],
      [
        "▁{\"game",
        -10.47434942212841
      ],
      [
        "▁climate",
        -10.474558188765325
      ],
      [
        "▁barcode",
        -10.474568493518603
      ],
      [
        "9\"}}}}",
        -10.475403260545255
      ],
      [
        "▁7%",
        -10.476007153915493
      ],
      [
        "▁\"is_su",
        -10.47607399990361
      ],
      [
        "▁trials",
        -10.47646428422206
      ],
      [
        "split",
        -10.476559176468108
      ],
      [
        "▁wo",
        -10.476934492824565
      ],
      [
        "▁comments.",
        -10.477288310410476
      ],
      [
        "▁RGB",
        -10.477742646813107
      ],
      [
        "m_of_",
        -10.477912604668006
      ],
      [
        "▁posts.",
        -10.477926032850183
      ],
      [
        "▁\"ob",
        -10.477930731357965
      ],
      [
        "independent",
        -10.478158171871417
      ],
      [
        "▁aircraft",
        -10.478256103272848
      ],
      [
        "▁message",
        -10.47877147930278
      ],
      [
        "synonyms",
        -10.479082832531306
      ],
      [
        "▁{\"dic",
        -10.479420818340824
      ],
      [
        "▁[15",
        -10.479965733649712
      ],
      [
        "sort",
        -10.480124419651702
      ],
      [
        "▁genre",
        -10.48021247211496
      ],
      [
        "_songs",
        -10.480729162929524
      ],
      [
        "▁'y",
        -10.480773821506105
      ],
      [
        "ivanews",
        -10.481371793006378
      ],
      [
        "parameter",
        -10.48143445345654
      ],
      [
        "14",
        -10.481450572599098
      ],
      [
        "Score",
        -10.481557877540402
      ],
      [
        "▁words.",
        -10.482340173647259
      ],
      [
        "▁tags",
        -10.482345347233796
      ],
      [
        "2-",
        -10.48507488745093
      ],
      [
        "▁USA",
        -10.485143769403724
      ],
      [
        "albums",
        -10.48537517523694
      ],
      [
        "▁\"long",
        -10.486573355113466
      ],
      [
        "▁produce",
        -10.486709677791524
      ],
      [
        "▁factor.",
        -10.487094297767246
      ],
      [
        "SG",
        -10.487107165598236
      ],
      [
        "hits",
        -10.487390339151073
      ],
      [
        "▁\"Time",
        -10.489013232418795
      ],
      [
        "Identifier",
        -10.489294000074517
      ],
      [
        "etting",
        -10.491262720277392
      ],
      [
        "▁Email",
        -10.492538058139143
      ],
      [
        "▁\"symbols_",
        -10.493174819608488
      ],
      [
        "We",
        -10.493910793551354
      ],
      [
        "divisions",
        -10.493932956952571
      ],
      [
        "itness",
        -10.49435593517418
      ],
      [
        "▁chart.",
        -10.49481159394249
      ],
      [
        "open",
        -10.495109105610485
      ],
      [
        "7}}",
        -10.495179054985122
      ],
      [
        "▁messages",
        -10.49541487012991
      ],
      [
        "▁log",
        -10.49586410270744
      ],
      [
        "solve",
        -10.496524634309633
      ],
      [
        "est_number",
        -10.49737050310931
      ],
      [
        "8}}",
        -10.497551891318361
      ],
      [
        "matching",
        -10.498315732117357
      ],
      [
        "▁15}}",
        -10.49848539052044
      ],
      [
        "radius",
        -10.49975115825706
      ],
      [
        "▁3}",
        -10.499825697052973
      ],
      [
        "words",
        -10.500724503378072
      ],
      [
        "▁cali",
        -10.501300232125821
      ],
      [
        "on_",
        -10.50153801575011
      ],
      [
        "▁interval.",
        -10.501584027597781
      ],
      [
        "channels",
        -10.501838821402016
      ],
      [
        "investment",
        -10.502680805472224
      ],
      [
        "est",
        -10.50360203884635
      ],
      [
        "▁URLs",
        -10.503809119398287
      ],
      [
        "▁500",
        -10.503850411564267
      ],
      [
        "CS",
        -10.50394101796314
      ],
      [
        "▁prefix",
        -10.505764488156737
      ],
      [
        "▁{\"current",
        -10.50712142567367
      ],
      [
        "▁prime",
        -10.5071254766075
      ],
      [
        "market",
        -10.5074601775311
      ],
      [
        "up",
        -10.508289635981805
      ],
      [
        "▁today",
        -10.508332587077438
      ],
      [
        "onditions",
        -10.512159962838396
      ],
      [
        "▁98765",
        -10.512514159317243
      ],
      [
        "▁{\"data",
        -10.512756234701357
      ],
      [
        "▁\"country_",
        -10.514332158594048
      ],
      [
        "-time",
        -10.515928127071982
      ],
      [
        "▁\"items",
        -10.515946626638197
      ],
      [
        "▁\"month",
        -10.517870130314497
      ],
      [
        "wer",
        -10.518826158404348
      ],
      [
        "\"static",
        -10.52048942956392
      ],
      [
        "▁\"timezone\"",
        -10.520915437819019
      ],
      [
        "Ug",
        -10.521865744344009
      ],
      [
        "30",
        -10.52307394741305
      ],
      [
        "otal",
        -10.523526027822298
      ],
      [
        "ration",
        -10.52380084240134
      ],
      [
        "▁\"string\"}",
        -10.52421544802881
      ],
      [
        "ictionary",
        -10.52444748303265
      ],
      [
        "77",
        -10.524700209835933
      ],
      [
        "ecision",
        -10.524706403803334
      ],
      [
        "▁produc",
        -10.525489754673002
      ],
      [
        "▁beverage",
        -10.525876177478695
      ],
      [
        "▁\"5",
        -10.525879844432204
      ],
      [
        "▁{\"image",
        -10.527564460814302
      ],
      [
        "▁indicate",
        -10.52828877293165
      ],
      [
        "▁organization",
        -10.528430683060119
      ],
      [
        "ei",
        -10.52905540653385
      ],
      [
        "▁match.",
        -10.530143092013482
      ],
      [
        "▁\"3\"}",
        -10.531127542077448
      ],
      [
        "▁hour",
        -10.531183591914367
      ],
      [
        "▁candle",
        -10.531320363910407
      ],
      [
        "only",
        -10.531497771810846
      ],
      [
        "ponent",
        -10.531832625715284
      ],
      [
        "▁CA",
        -10.53228665731234
      ],
      [
        "▁songs",
        -10.533347947624275
      ],
      [
        "_char",
        -10.534727060717081
      ],
      [
        "_interval\"",
        -10.534780028703278
      ],
      [
        "▁987654321",
        -10.5366640525026
      ],
      [
        "base\"",
        -10.537033560387979
      ],
      [
        "with",
        -10.53825856098879
      ],
      [
        "arch",
        -10.538717251153598
      ],
      [
        "expiration",
        -10.538981231942799
      ],
      [
        "▁\"pr",
        -10.539489416622413
      ],
      [
        "1e9",
        -10.540286513681146
      ],
      [
        "test.",
        -10.540579315363404
      ],
      [
        "_city",
        -10.54290781016821
      ],
      [
        "▁'true'",
        -10.543474795318401
      ],
      [
        "16\"}",
        -10.543736614569028
      ],
      [
        "▁'us'",
        -10.544118706399004
      ],
      [
        "▁o",
        -10.544913250930957
      ],
      [
        "dice\"",
        -10.546745861410422
      ],
      [
        "exercises",
        -10.546848281718908
      ],
      [
        "human",
        -10.547620372413279
      ],
      [
        "▁star",
        -10.548236100234133
      ],
      [
        "ution",
        -10.548429173448625
      ],
      [
        "potential",
        -10.549860956011841
      ],
      [
        "_v2_get_",
        -10.550000939366111
      ],
      [
        "source",
        -10.550280321307767
      ],
      [
        "45min",
        -10.5507313851438
      ],
      [
        "▁domain.",
        -10.550887420641294
      ],
      [
        "▁\"word_",
        -10.552061470155724
      ],
      [
        "nnual",
        -10.552102829282697
      ],
      [
        "Sports",
        -10.552208652441582
      ],
      [
        "▁'.'",
        -10.55235370661764
      ],
      [
        "integration",
        -10.553332803104949
      ],
      [
        "Tuple[",
        -10.554275070547085
      ],
      [
        "bodies",
        -10.554332288784796
      ],
      [
        "imperial",
        -10.55433674764304
      ],
      [
        "3Gqxm24_Vd_AJ5Yw",
        -10.554342473239544
      ],
      [
        "MPHWCmYgbhifgwIZ",
        -10.554342473239545
      ],
      [
        "oscillator",
        -10.554342473248472
      ],
      [
        "▁\"Restrict",
        -10.554342473405306
      ],
      [
        "▁Facebook",
        -10.554342473407273
      ],
      [
        "▁matrices",
        -10.55434247527132
      ],
      [
        "▁Legends",
        -10.554342476785362
      ],
      [
        "▁Spanish",
        -10.55434247902801
      ],
      [
        "▁`close`.",
        -10.554342481933496
      ],
      [
        "▁Yahoo",
        -10.554342563161471
      ],
      [
        "▁rule.",
        -10.554343226667266
      ],
      [
        "▁Wikipedia",
        -10.554344130747623
      ],
      [
        "▁(VIN)",
        -10.554344302944418
      ],
      [
        "▁writ",
        -10.554359939228334
      ],
      [
        "▁\"find_longest_",
        -10.554372243089444
      ],
      [
        "independence",
        -10.554382786824082
      ],
      [
        "giveaways",
        -10.554382986167827
      ],
      [
        "▁Binance",
        -10.554384662886378
      ],
      [
        "Flatten",
        -10.554424675148212
      ],
      [
        "▁India",
        -10.554428588038604
      ],
      [
        "words\"",
        -10.554465582811671
      ],
      [
        "factorization",
        -10.55447007911678
      ],
      [
        "▁\"order_by_",
        -10.55451936230923
      ],
      [
        "▁identifier.",
        -10.554582476066715
      ],
      [
        "false",
        -10.554584612751217
      ],
      [
        "▁'CA'",
        -10.554607808740366
      ],
      [
        "▁Beach",
        -10.554623013166076
      ],
      [
        "▁'it'",
        -10.55485866316317
      ],
      [
        "_count",
        -10.554870668751192
      ],
      [
        "waist",
        -10.554891352758359
      ],
      [
        "california",
        -10.554935581909865
      ],
      [
        "official",
        -10.5550481380493
      ],
      [
        "community",
        -10.555130429907594
      ],
      [
        "▁\"gettotal",
        -10.555290254666883
      ],
      [
        "▁letters.",
        -10.555354508510732
      ],
      [
        "▁\"TSLA\"}}",
        -10.555371465497249
      ],
      [
        "nightly",
        -10.555414408647351
      ],
      [
        "▁{\"num_",
        -10.55575728721778
      ],
      [
        "▁'xml'.",
        -10.555768052046174
      ],
      [
        "▁validity",
        -10.555868466147597
      ],
      [
        "▁\"options_",
        -10.556058450362428
      ],
      [
        "charades",
        -10.55606373824687
      ],
      [
        "▁flattened",
        -10.556249022612132
      ],
      [
        "▁measured",
        -10.556565729317505
      ],
      [
        "▁coulombs",
        -10.55674193568731
      ],
      [
        "gu",
        -10.55700632637072
      ],
      [
        "▁UTC",
        -10.55711320510838
      ],
      [
        "weekly",
        -10.557356869661536
      ],
      [
        "▁\"greatest_",
        -10.557377242890361
      ],
      [
        "perpage",
        -10.557626114184563
      ],
      [
        "▁real",
        -10.557802884835986
      ],
      [
        "▁(latitude",
        -10.55780770811944
      ],
      [
        "▁header.",
        -10.557844942707675
      ],
      [
        "flights",
        -10.558261883483095
      ],
      [
        "▁\"retrieve_",
        -10.558463225568092
      ],
      [
        "▁Tw",
        -10.558831430828858
      ],
      [
        "▁\"monthly_",
        -10.559211604212685
      ],
      [
        "▁m/s.",
        -10.559388785487698
      ],
      [
        "▁\"series_",
        -10.55942257514727
      ],
      [
        "▁\"annual",
        -10.56022241440222
      ],
      [
        "compound",
        -10.560910545160038
      ],
      [
        "▁click",
        -10.56110744795211
      ],
      [
        "^2).",
        -10.561146332765382
      ],
      [
        "▁tweet",
        -10.561165541279301
      ],
      [
        "▁{\"item",
        -10.561262316202864
      ],
      [
        "▁\"getuser",
        -10.56141572007374
      ],
      [
        "▁German",
        -10.561764119104716
      ],
      [
        "▁\"health",
        -10.562037844427145
      ],
      [
        "▁Europe",
        -10.562495934235992
      ],
      [
        "directory",
        -10.56348140517682
      ],
      [
        "▁Chi",
        -10.563504103932031
      ],
      [
        "reserve",
        -10.563507821878385
      ],
      [
        "kdomain.com\"}}}}",
        -10.563626356950072
      ],
      [
        "nearby",
        -10.563730775540183
      ],
      [
        "▁alpha",
        -10.56447500431377
      ],
      [
        "dynamic",
        -10.564586813331399
      ],
      [
        "▁playlist",
        -10.564700833163446
      ],
      [
        "▁cap",
        -10.5655126096967
      ],
      [
        "▁Rat",
        -10.566420694566444
      ],
      [
        "▁Convert",
        -10.566563892371269
      ],
      [
        "continent",
        -10.56675636528579
      ],
      [
        "Lamarck'",
        -10.567194541164186
      ],
      [
        "world",
        -10.568926799457952
      ],
      [
        "week",
        -10.569663786182527
      ],
      [
        "▁\"getlist",
        -10.570059469681762
      ],
      [
        "introverts",
        -10.570554418254755
      ],
      [
        "extroverts",
        -10.57124179039907
      ],
      [
        "▁Foods",
        -10.571671160823996
      ],
      [
        "▁merge",
        -10.571805778841576
      ],
      [
        "▁Identif",
        -10.572061720633373
      ],
      [
        "our",
        -10.572294256070098
      ],
      [
        "▁2019",
        -10.572901914434295
      ],
      [
        "▁{\"player",
        -10.572994138931417
      ],
      [
        "measurement",
        -10.573071413088286
      ],
      [
        "dynamics",
        -10.573107989135043
      ],
      [
        "meetings",
        -10.575140752643609
      ],
      [
        "s_by_",
        -10.575294615926712
      ],
      [
        "40,",
        -10.575855999187432
      ],
      [
        "▁25.",
        -10.575940860846467
      ],
      [
        "▁\"filter",
        -10.576649159715803
      ],
      [
        "▁required.",
        -10.577847114659573
      ],
      [
        "▁pair.",
        -10.578728917653434
      ],
      [
        "D)",
        -10.579702562862634
      ],
      [
        "X,",
        -10.579850941929234
      ],
      [
        "▁conti",
        -10.580938029672248
      ],
      [
        "▁teams",
        -10.581038841144675
      ],
      [
        "▁\"in",
        -10.581657397710842
      ],
      [
        "▁hand",
        -10.581818203670021
      ],
      [
        "▁dictionaries",
        -10.581993929696758
      ],
      [
        "_comments",
        -10.58199984608699
      ],
      [
        "▁riddle",
        -10.582280125214869
      ],
      [
        "▁10000.",
        -10.582630448243954
      ],
      [
        "▁\"countries",
        -10.583055423246767
      ],
      [
        "▁engine",
        -10.584595918134946
      ],
      [
        "▁\"List[int]\"",
        -10.58470857533549
      ],
      [
        "▁\"check",
        -10.585068196947294
      ],
      [
        "▁listing",
        -10.585433821442368
      ],
      [
        "How",
        -10.58552594124924
      ],
      [
        "▁trip",
        -10.587181907351606
      ],
      [
        "30min",
        -10.58760310448545
      ],
      [
        "nal",
        -10.58803867374895
      ],
      [
        "▁0.2",
        -10.588835618614464
      ],
      [
        "▁JSONP",
        -10.589300790110713
      ],
      [
        "▁\"14.",
        -10.590344907113188
      ],
      [
        "▁Australia",
        -10.591183213545715
      ],
      [
        "▁Weather",
        -10.592676962573336
      ],
      [
        "ry",
        -10.593953696944684
      ],
      [
        "_number",
        -10.594153987964752
      ],
      [
        "id'",
        -10.59494066263532
      ],
      [
        "specifications",
        -10.595127160629406
      ],
      [
        "▁hotel.",
        -10.595343378093924
      ],
      [
        "▁\"info",
        -10.5959242177302
      ],
      [
        "▁tournaments",
        -10.596416178559315
      ],
      [
        "▁\"list\"}",
        -10.597176191469716
      ],
      [
        "▁decay",
        -10.599250723517077
      ],
      [
        "roperties_detail",
        -10.59952015919461
      ],
      [
        "▁18,",
        -10.59969537856081
      ],
      [
        "feedbacks",
        -10.60025265449844
      ],
      [
        "▁screenshot",
        -10.60133312015319
      ],
      [
        "▁links",
        -10.60148240416832
      ],
      [
        "population",
        -10.601565255018217
      ],
      [
        "0}}",
        -10.602345665822394
      ],
      [
        "area_",
        -10.60362617592527
      ],
      [
        "▁new",
        -10.603928615860669
      ],
      [
        "height\"",
        -10.604432507311149
      ],
      [
        "▁bacteria",
        -10.604945125842896
      ],
      [
        "▁p",
        -10.605642239245231
      ],
      [
        "▁1}}}}",
        -10.605944260625053
      ],
      [
        "▁prices.",
        -10.606322643856561
      ],
      [
        "▁\"make",
        -10.606689819732154
      ],
      [
        "▁\"ca",
        -10.606720926306991
      ],
      [
        "▁88",
        -10.606812805797047
      ],
      [
        "▁\"Specif",
        -10.606831213750205
      ],
      [
        "▁\"games",
        -10.607054933347989
      ],
      [
        "gram",
        -10.607388458555123
      ],
      [
        "▁17",
        -10.607637572932962
      ],
      [
        "▁index)",
        -10.609109610409716
      ],
      [
        "▁\"3",
        -10.611049343824439
      ],
      [
        "▁\"by_",
        -10.612443561952402
      ],
      [
        "▁filter.",
        -10.612847492213383
      ],
      [
        "▁profiles",
        -10.615260102068376
      ],
      [
        "Global",
        -10.61602011500714
      ],
      [
        "▁\"get_article",
        -10.616952439284312
      ],
      [
        "▁exte",
        -10.618255199766065
      ],
      [
        "▁\"linear",
        -10.618798586855412
      ],
      [
        "specific",
        -10.620091357539902
      ],
      [
        "de",
        -10.626842567525769
      ],
      [
        "color",
        -10.627134902597238
      ],
      [
        "mail",
        -10.629803557921718
      ],
      [
        "ness",
        -10.631223443919163
      ],
      [
        "Compute",
        -10.631723847112973
      ],
      [
        "_string\"",
        -10.634513638208247
      ],
      [
        "8\"}}}}",
        -10.635775227294575
      ],
      [
        "rooms",
        -10.636594002005697
      ],
      [
        "fitness",
        -10.637833360078892
      ],
      [
        "▁estimate",
        -10.638114427057612
      ],
      [
        "▁\"7",
        -10.638500420478035
      ],
      [
        "ples",
        -10.63863810073398
      ],
      [
        "ding",
        -10.63962448593905
      ],
      [
        "▁\"last_",
        -10.64028227266611
      ],
      [
        "▁localize",
        -10.641717487237205
      ],
      [
        "_investment",
        -10.6422936592529
      ],
      [
        "▁\"us_",
        -10.643790662718885
      ],
      [
        "st_common_",
        -10.644204742408105
      ],
      [
        "▁tile",
        -10.645362463748803
      ],
      [
        "▁there",
        -10.645452281947051
      ],
      [
        "▁charg",
        -10.645851663923715
      ],
      [
        "forecast",
        -10.64638659130182
      ],
      [
        "CA,",
        -10.648060573682718
      ],
      [
        "password",
        -10.649763646016071
      ],
      [
        "genres",
        -10.649926322659205
      ],
      [
        "_trend",
        -10.651818917135865
      ],
      [
        "▁regions",
        -10.654263905698324
      ],
      [
        "▁Air",
        -10.654393697318078
      ],
      [
        "▁\"start_l",
        -10.655391784630325
      ],
      [
        "▁'en_US'",
        -10.655497366888874
      ],
      [
        "d.\"",
        -10.655662511132572
      ],
      [
        "▁\"create",
        -10.655740595713795
      ],
      [
        "raids",
        -10.65600061582423
      ],
      [
        "▁city.",
        -10.657129910941688
      ],
      [
        "65",
        -10.657655145439666
      ],
      [
        "▁\"stock_get_",
        -10.658118540360633
      ],
      [
        "_points",
        -10.658145350533978
      ],
      [
        "float]]\"}}}}",
        -10.658807211980752
      ],
      [
        "region",
        -10.658863429559155
      ],
      [
        "▁\"AAPL\"",
        -10.659157258772176
      ],
      [
        "records",
        -10.65938854257594
      ],
      [
        "▁network",
        -10.660756023368188
      ],
      [
        "ursor",
        -10.662691405879933
      ],
      [
        "▁webtoon",
        -10.66326804550038
      ],
      [
        "1\"}",
        -10.663324858752826
      ],
      [
        "▁process",
        -10.663371705093095
      ],
      [
        "▁feature",
        -10.66343604896326
      ],
      [
        "▁{\"match",
        -10.663499009725058
      ],
      [
        "documents",
        -10.664644493276372
      ],
      [
        "reference",
        -10.664819066040488
      ],
      [
        "▁{\"func",
        -10.665060281041542
      ],
      [
        "▁{\"req",
        -10.665161782019528
      ],
      [
        "keto",
        -10.665282879379031
      ],
      [
        "navigation",
        -10.665440913146796
      ],
      [
        "delivery",
        -10.66545321891764
      ],
      [
        "license",
        -10.665453576800259
      ],
      [
        "▁\"Criteri",
        -10.665453584687267
      ],
      [
        "▁improve",
        -10.665453584819211
      ],
      [
        "experiment",
        -10.665453585198325
      ],
      [
        "▁\"Airbus\"}}}}",
        -10.665453585969079
      ],
      [
        "▁impact",
        -10.665453586173639
      ],
      [
        "amenities",
        -10.665453628559732
      ],
      [
        "hazam",
        -10.665454301060288
      ],
      [
        "▁WhatsApp",
        -10.665454448899998
      ],
      [
        "arithm",
        -10.6654553690247
      ],
      [
        "▁Smart",
        -10.66546972856954
      ],
      [
        "▁\"get_holidays",
        -10.665484289971129
      ],
      [
        "▁\"nearest_",
        -10.665503879341578
      ],
      [
        "goods_spu",
        -10.665516967743448
      ],
      [
        "province",
        -10.665545221951422
      ],
      [
        "mileage",
        -10.665545235986414
      ],
      [
        "▁\"100\"}",
        -10.66555984381481
      ],
      [
        "al_velocity\"",
        -10.665603699205557
      ],
      [
        "_square",
        -10.66567989408561
      ],
      [
        "▁\"List[str]\"}}}}",
        -10.665715366517256
      ],
      [
        "temporar",
        -10.665730710300547
      ],
      [
        "press_",
        -10.665769257971766
      ],
      [
        "▁'DE",
        -10.665780931530994
      ],
      [
        "clips",
        -10.665875357019685
      ],
      [
        "▁(IPv4",
        -10.665938818344797
      ],
      [
        "lowercase",
        -10.665959041660653
      ],
      [
        "▁Song",
        -10.66621742324434
      ],
      [
        "ART",
        -10.666259475421619
      ],
      [
        "▁visual",
        -10.666348090454484
      ],
      [
        "naics",
        -10.666545366063254
      ],
      [
        "salary",
        -10.666564771114661
      ],
      [
        "▁'webcams",
        -10.666754469780642
      ],
      [
        "▁feet",
        -10.666832428446504
      ],
      [
        "▁'JSON'.",
        -10.666955880520039
      ],
      [
        "▁'en').",
        -10.667190293753212
      ],
      [
        "▁appears",
        -10.667207211790057
      ],
      [
        "▁pounds.",
        -10.667292952007461
      ],
      [
        "▁1024.",
        -10.667392478524272
      ],
      [
        "Q",
        -10.667416873760793
      ],
      [
        "▁extr",
        -10.667506891546154
      ],
      [
        "GCD",
        -10.667674868827474
      ],
      [
        "s/list",
        -10.667827726615416
      ],
      [
        "▁\"Download",
        -10.667946168978792
      ],
      [
        "2*x",
        -10.6679929286662
      ],
      [
        "▁\"time_zone_",
        -10.668085394591035
      ],
      [
        "▁\"theme",
        -10.668416974262783
      ],
      [
        "▁stories",
        -10.668497353258504
      ],
      [
        "▁integra",
        -10.66869410993656
      ],
      [
        "_investment_",
        -10.669271128661007
      ],
      [
        "-hour",
        -10.669705235537984
      ],
      [
        "Optionally",
        -10.671123154463515
      ],
      [
        "▁Zip",
        -10.671606338394033
      ],
      [
        "x_",
        -10.671638614402593
      ],
      [
        "▁Price",
        -10.671867624392313
      ],
      [
        "common_",
        -10.671982195580265
      ],
      [
        "▁\"read_",
        -10.672045566453118
      ],
      [
        "▁Ju",
        -10.67205965677911
      ],
      [
        "▁\"End",
        -10.672187296987328
      ],
      [
        "\"get_a_specific_",
        -10.672345173127686
      ],
      [
        "▁\"random",
        -10.672647687237532
      ],
      [
        "▁1st",
        -10.6729781054114
      ],
      [
        "velocity\"",
        -10.673130052170292
      ],
      [
        "▁\"network",
        -10.673274514065973
      ],
      [
        "▁background",
        -10.673582430269782
      ],
      [
        "▁album",
        -10.673601439618082
      ],
      [
        "DE,",
        -10.673644265317977
      ],
      [
        "▁success",
        -10.67464771865839
      ],
      [
        "▁\"Hel",
        -10.674808653011088
      ],
      [
        "▁{\"store_",
        -10.67482897263677
      ],
      [
        "▁OT",
        -10.675025191163375
      ],
      [
        "▁Produc",
        -10.675125664478628
      ],
      [
        "SK",
        -10.675435397046972
      ],
      [
        "▁75",
        -10.676288126285383
      ],
      [
        "three-",
        -10.67636047253674
      ],
      [
        "▁snapshot",
        -10.676587484692371
      ],
      [
        "▁bins",
        -10.676693501299914
      ],
      [
        "solved",
        -10.677080851529867
      ],
      [
        "▁\"m",
        -10.677522966070166
      ],
      [
        "exchange",
        -10.678055356380835
      ],
      [
        "▁active\\\"",
        -10.679023536039743
      ],
      [
        "▁(0-5",
        -10.679034784156586
      ],
      [
        "▁entry",
        -10.679772404386203
      ],
      [
        "▁holidays.",
        -10.680322894115523
      ],
      [
        "▁\"product",
        -10.680552486209521
      ],
      [
        "permutation",
        -10.680620919184749
      ],
      [
        "special\"",
        -10.681013889857729
      ],
      [
        "ideal",
        -10.68109963211421
      ],
      [
        "▁units.",
        -10.681418326766062
      ],
      [
        "▁analyze",
        -10.681572591161792
      ],
      [
        "▁currently",
        -10.68221867676117
      ],
      [
        "info",
        -10.68263858517005
      ],
      [
        "▁'1'",
        -10.682854148989993
      ],
      [
        "▁\"time_series",
        -10.684271223902263
      ],
      [
        "numeric",
        -10.684271611353203
      ],
      [
        "▁{\"chain",
        -10.684284089465823
      ],
      [
        "▁{\"target_",
        -10.68454516293087
      ],
      [
        "uppercase",
        -10.685082633368214
      ],
      [
        "cash",
        -10.685206874135556
      ],
      [
        "▁\"lea",
        -10.685606185021896
      ],
      [
        "▁stations",
        -10.68586572884686
      ],
      [
        "▁week.",
        -10.68671197221702
      ],
      [
        "▁needed",
        -10.688822498052197
      ],
      [
        "80",
        -10.688914815748145
      ],
      [
        "▁\"fin",
        -10.6893611123018
      ],
      [
        "▁\"webcams",
        -10.689518772590233
      ],
      [
        "▁{\"mo",
        -10.689545058970937
      ],
      [
        "IT,",
        -10.689738068715165
      ],
      [
        "▁some",
        -10.690057963687662
      ],
      [
        "▁500.",
        -10.690112151499388
      ],
      [
        "taxi",
        -10.690431611700467
      ],
      [
        "▁9]",
        -10.692718472448304
      ],
      [
        "-E",
        -10.693883457854874
      ],
      [
        "▁YYYYMMDD",
        -10.694054002544767
      ],
      [
        "Query",
        -10.694217568431437
      ],
      [
        "▁\"loan_",
        -10.694323733385444
      ],
      [
        "division",
        -10.694588756453726
      ],
      [
        "▁21",
        -10.69482071716063
      ],
      [
        "▁white",
        -10.695294476472295
      ],
      [
        "▁14.",
        -10.6953940180639
      ],
      [
        "▁\"channel_",
        -10.695731680275292
      ],
      [
        "▁\"sample_",
        -10.696178303154714
      ],
      [
        "▁\"team",
        -10.696600231745027
      ],
      [
        "▁Cho",
        -10.698010883082382
      ],
      [
        "180",
        -10.69839198093171
      ],
      [
        "▁users.",
        -10.698933016542988
      ],
      [
        "_between",
        -10.699322665488982
      ],
      [
        "Map",
        -10.699773158208828
      ],
      [
        "search_by_",
        -10.701006057694642
      ],
      [
        "▁dessert",
        -10.70313238883678
      ],
      [
        "▁groups",
        -10.704803637797749
      ],
      [
        "input",
        -10.705055718904115
      ],
      [
        "▁\"2022\"}}}}",
        -10.705074125307942
      ],
      [
        "▁seconds",
        -10.705139345862532
      ],
      [
        "▁rate.",
        -10.705647151646204
      ],
      [
        "▁ranges",
        -10.70668905283963
      ],
      [
        "▁intervals.",
        -10.708359078179132
      ],
      [
        "▁hours",
        -10.7098544992761
      ],
      [
        "▁hash",
        -10.71010945796022
      ],
      [
        "▁\"show\"",
        -10.712039705843297
      ],
      [
        "▁tracks",
        -10.713362870739047
      ],
      [
        "trapezoid",
        -10.713699685113543
      ],
      [
        "AQ",
        -10.713892933703715
      ],
      [
        "▁updates",
        -10.714098612034082
      ],
      [
        "sorted_",
        -10.715018120071193
      ],
      [
        "▁records.",
        -10.715724801003573
      ],
      [
        "▁changes",
        -10.715887273168565
      ],
      [
        "▁travel",
        -10.715912373590502
      ],
      [
        "▁original",
        -10.716554087028944
      ],
      [
        "▁\"number\"",
        -10.71786125791231
      ],
      [
        "▁30}}",
        -10.718171492684315
      ],
      [
        "▁font",
        -10.720118590654087
      ],
      [
        "▁artists",
        -10.720549505521815
      ],
      [
        "▁(in",
        -10.721553665117012
      ],
      [
        "▁identifie",
        -10.721739342932665
      ],
      [
        "▁horse",
        -10.723024557776863
      ],
      [
        "▁\"tt0944947\"}}}}",
        -10.723527937154994
      ],
      [
        "ranges",
        -10.724155480001913
      ],
      [
        "index",
        -10.724468684587524
      ],
      [
        "top",
        -10.725313235386167
      ],
      [
        "@gmail.com\"}}}}",
        -10.72580840534106
      ],
      [
        "▁\"5\"}",
        -10.725939637321822
      ],
      [
        "sentence\"",
        -10.726574339146138
      ],
      [
        "▁'x^",
        -10.727733605618734
      ],
      [
        "keyword",
        -10.72779689877674
      ],
      [
        "▁substring",
        -10.728103348913924
      ],
      [
        "▁calendar",
        -10.728768094912963
      ],
      [
        "shorts",
        -10.729612320684433
      ],
      [
        "_v2\"",
        -10.731198072415001
      ],
      [
        "▁stream",
        -10.731409187824942
      ],
      [
        "▁books",
        -10.731554826116595
      ],
      [
        "field",
        -10.73180990478726
      ],
      [
        "▁verses",
        -10.732269228761254
      ],
      [
        "Thi",
        -10.733666746222749
      ],
      [
        "▁28",
        -10.734312082900122
      ],
      [
        "pg\"",
        -10.7345706451314
      ],
      [
        "▁champion",
        -10.734792379328232
      ],
      [
        "▁IDs.",
        -10.735015760242849
      ],
      [
        "▁view",
        -10.736310632474911
      ],
      [
        "dividend",
        -10.738267527848834
      ],
      [
        "6\"}",
        -10.738422469043106
      ],
      [
        "high",
        -10.740784005678522
      ],
      [
        "▁-1",
        -10.741057580557316
      ],
      [
        "title",
        -10.741129826073402
      ],
      [
        "int",
        -10.741925323145637
      ],
      [
        "_utc_",
        -10.742307145788178
      ],
      [
        "character",
        -10.742661004522976
      ],
      [
        "▁inclu",
        -10.743859500492235
      ],
      [
        "▁\"area_",
        -10.744865924495185
      ],
      [
        "▁\"latest_",
        -10.74569499025255
      ],
      [
        "box",
        -10.746375009017845
      ],
      [
        "973",
        -10.746568133932454
      ],
      [
        "▁Ge",
        -10.747377473152646
      ],
      [
        "▁{\"total_",
        -10.747863892147997
      ],
      [
        "▁\"s",
        -10.748258389796174
      ],
      [
        "10",
        -10.749142423055467
      ],
      [
        "_album",
        -10.750008055739631
      ],
      [
        "▁\"6",
        -10.75338604283592
      ],
      [
        "▁detail",
        -10.753789047463753
      ],
      [
        "en",
        -10.755510604507572
      ],
      [
        "settings",
        -10.756092384780217
      ],
      [
        "ll_kfc_locations",
        -10.756383729137706
      ],
      [
        "rate\"",
        -10.757567796021988
      ],
      [
        "device",
        -10.759484926095844
      ],
      [
        "speed",
        -10.759504360023527
      ],
      [
        "▁x",
        -10.75996648018228
      ],
      [
        "move",
        -10.760824139024647
      ],
      [
        "hotel_",
        -10.763462925486113
      ],
      [
        "▁anime",
        -10.763792099132017
      ],
      [
        "▁shares",
        -10.765767719142557
      ],
      [
        "bound.",
        -10.765998847736387
      ],
      [
        "▁\"250\"}",
        -10.767051864392075
      ],
      [
        "vin",
        -10.767331682000576
      ],
      [
        "▁geocode",
        -10.768077435517464
      ],
      [
        "Default",
        -10.768503827166171
      ],
      [
        "▁St",
        -10.768750427439915
      ],
      [
        "Apple",
        -10.768978577226525
      ],
      [
        "find",
        -10.769550441024924
      ],
      [
        "divisor\"",
        -10.770097903285874
      ],
      [
        "postal_code\"",
        -10.770851673185598
      ],
      [
        "▁\"100\"}}}}",
        -10.771481907002169
      ],
      [
        "rm",
        -10.772594647976897
      ],
      [
        "token\"",
        -10.774066660720372
      ],
      [
        "▁'cat",
        -10.774199437172403
      ],
      [
        "25,",
        -10.775178135749385
      ],
      [
        "▁\"convert_",
        -10.775525928409262
      ],
      [
        "▁\"search\"",
        -10.775528396328031
      ],
      [
        "uid\"",
        -10.775634440897782
      ],
      [
        "named",
        -10.777155708438908
      ],
      [
        "energy\"",
        -10.779807751061414
      ],
      [
        "4\"}}",
        -10.780890550326108
      ],
      [
        "▁10-",
        -10.781476721382749
      ],
      [
        "▁move",
        -10.782750657373887
      ],
      [
        "▁0.04",
        -10.783585128060063
      ],
      [
        "height",
        -10.784644179944918
      ],
      [
        "agent",
        -10.78484072109923
      ],
      [
        "ython",
        -10.785156780597463
      ],
      [
        "TS",
        -10.785387338244757
      ],
      [
        "▁\"domain",
        -10.786233065437457
      ],
      [
        "▁equ",
        -10.787097617755434
      ],
      [
        "bu",
        -10.787255613178896
      ],
      [
        "0`.",
        -10.78745598152567
      ],
      [
        "ME",
        -10.788019312684858
      ],
      [
        "dimension",
        -10.788736170170466
      ],
      [
        "20",
        -10.788891221791197
      ],
      [
        "▁\"tsv",
        -10.789243401164452
      ],
      [
        "_id'",
        -10.789521150150362
      ],
      [
        "oyal",
        -10.789624298999758
      ],
      [
        "▁\"Dict\"}",
        -10.790149380194297
      ],
      [
        "▁\"List[str]\"}",
        -10.790157081038085
      ],
      [
        "lang_en",
        -10.790255281315016
      ],
      [
        "▁volume",
        -10.790344586379728
      ],
      [
        "uardian",
        -10.790399339850282
      ],
      [
        "▁definit",
        -10.7904034684966
      ],
      [
        "EUR/USD",
        -10.79041303319801
      ],
      [
        "°",
        -10.79045358436223
      ],
      [
        "▁'m22022854841'.",
        -10.79045358436223
      ],
      [
        "▁\"m22022854841\"}",
        -10.79045358436223
      ],
      [
        "▁'2023-12-14'.",
        -10.790453584362233
      ],
      [
        "COVID-19",
        -10.790453584362236
      ],
      [
        "▁Snapchat",
        -10.790453584363329
      ],
      [
        "2021-05-21",
        -10.79045358436683
      ],
      [
        "capitalization",
        -10.790453584801327
      ],
      [
        "▁OFAC",
        -10.790453585676753
      ],
      [
        "HH:mm",
        -10.790453596487422
      ],
      [
        "▁otherwise",
        -10.790453616551156
      ],
      [
        "-122.49493",
        -10.790453657885202
      ],
      [
        "▁\"nhl_",
        -10.790453740328896
      ],
      [
        "binomial",
        -10.790453952689635
      ],
      [
        "podcast",
        -10.79045397652652
      ],
      [
        "▁`admin2`",
        -10.790454046947707
      ],
      [
        "▁steps",
        -10.790455206852851
      ],
      [
        "-13.4",
        -10.790455247116231
      ],
      [
        "▁Artist",
        -10.790455598027865
      ],
      [
        "▁Pok\\u00e9mon",
        -10.790456893950232
      ],
      [
        "undervalued",
        -10.790456939972062
      ],
      [
        "▁highway",
        -10.79045941993921
      ],
      [
        "CAGR",
        -10.790459707632905
      ],
      [
        "First",
        -10.790466001350744
      ],
      [
        "localite\"",
        -10.790467112850784
      ],
      [
        "navigations_get_",
        -10.790468059549397
      ],
      [
        "▁invested",
        -10.790468589853248
      ],
      [
        "▁\"vivanews_",
        -10.790471597350432
      ],
      [
        "▁boost",
        -10.7904766881997
      ],
      [
        "▁'1day'",
        -10.790478589428993
      ],
      [
        "Order",
        -10.79048850765902
      ],
      [
        "▁SSL",
        -10.790504902530637
      ],
      [
        "queue",
        -10.790511725989113
      ],
      [
        "▁drive)",
        -10.790524124027204
      ],
      [
        "risk",
        -10.79053253689179
      ],
      [
        "▁'ES'",
        -10.790554180065321
      ],
      [
        "▁Ark",
        -10.790585630403756
      ],
      [
        "▁Dollar",
        -10.7906071700989
      ],
      [
        "HEX",
        -10.790631805917105
      ],
      [
        "price\"",
        -10.790642813423926
      ],
      [
        "passport",
        -10.790648021024781
      ],
      [
        "▁mortgage",
        -10.790653818745419
      ],
      [
        "BMI",
        -10.790707309606429
      ],
      [
        "%20",
        -10.790716157325978
      ],
      [
        "DNS",
        -10.79073936872276
      ],
      [
        "▁\"Dict\"}}}}",
        -10.790757922401948
      ],
      [
        "o_chat",
        -10.790808968475602
      ],
      [
        "▁\"rental_",
        -10.790860872106174
      ],
      [
        "_activity",
        -10.790937921979012
      ],
      [
        "▁'ETH/BTC'",
        -10.790958666536255
      ],
      [
        "parental",
        -10.79098384884125
      ],
      [
        "▁'GB'",
        -10.790993993967756
      ],
      [
        "▁choos",
        -10.79101083969554
      ],
      [
        "heart",
        -10.791236715085889
      ],
      [
        "▁purposes.",
        -10.79206560088979
      ],
      [
        "vault",
        -10.792291463028882
      ],
      [
        "perfect",
        -10.792660251419552
      ],
      [
        "▁hex",
        -10.792745350247
      ],
      [
        "OI",
        -10.792833782403145
      ],
      [
        "▁\"click",
        -10.792867869323329
      ],
      [
        "▁\"female\"",
        -10.79288783053725
      ],
      [
        "▁inches.",
        -10.793050116677312
      ],
      [
        "▁\"filter_",
        -10.793328038558625
      ],
      [
        "▁retweets",
        -10.793661847849057
      ],
      [
        "▁theaters.",
        -10.793764020796491
      ],
      [
        "▁'EUR",
        -10.793848980854348
      ],
      [
        "suggestions",
        -10.793865579070982
      ],
      [
        "office",
        -10.79393280382932
      ],
      [
        "indexed",
        -10.79395672093418
      ],
      [
        "▁`json`.",
        -10.794009937237144
      ],
      [
        "▁activities",
        -10.794035937804388
      ],
      [
        "▁\"exclude",
        -10.794148042533939
      ],
      [
        "▁\"GOOGL\"",
        -10.794153723321209
      ],
      [
        "km",
        -10.7941570773764
      ],
      [
        "long",
        -10.79424625829977
      ],
      [
        "▁industry",
        -10.7944591099429
      ],
      [
        "▁administrator.",
        -10.794743933319422
      ],
      [
        "▁24680",
        -10.795063585291583
      ],
      [
        "▁host",
        -10.795079868864287
      ],
      [
        "▁'2022'.",
        -10.795168348109781
      ],
      [
        "property",
        -10.795410629423627
      ],
      [
        "▁\"free_",
        -10.795609306203652
      ],
      [
        "▁\"TSLA\"",
        -10.79564805866912
      ],
      [
        "▁\"cities_",
        -10.79592035968641
      ],
      [
        "orderby",
        -10.796134313865652
      ],
      [
        "lve",
        -10.796285383302365
      ],
      [
        "symbol",
        -10.796698341130876
      ],
      [
        "ation.",
        -10.797147330331887
      ],
      [
        "▁\"place_",
        -10.797290221335853
      ],
      [
        "▁\"upper",
        -10.797327560449844
      ],
      [
        "expand",
        -10.797543187632542
      ],
      [
        "▁\"prematch",
        -10.797654895031563
      ],
      [
        "▁\"male\"",
        -10.797769605611705
      ],
      [
        "0]",
        -10.797991513695782
      ],
      [
        "countries",
        -10.798251805939536
      ],
      [
        "▁Track",
        -10.79826361209253
      ],
      [
        "les",
        -10.79826655393136
      ],
      [
        "▁\"titles_",
        -10.7984216713388
      ],
      [
        "▁{\"room_",
        -10.798836945776673
      ],
      [
        "▁checked.",
        -10.799012918889526
      ],
      [
        "4\"}}}}",
        -10.799028476098842
      ],
      [
        "▁Paris",
        -10.799162160802785
      ],
      [
        "▁{\"tournament",
        -10.799552284996595
      ],
      [
        "_image",
        -10.799835964056632
      ],
      [
        "▁grams.",
        -10.80004599498088
      ],
      [
        "UA",
        -10.801264371912481
      ],
      [
        "▁250.",
        -10.80166928920681
      ],
      [
        "▁1234",
        -10.801953377527798
      ],
      [
        "▁\"Sh",
        -10.802145667524487
      ],
      [
        "flow",
        -10.802454889884215
      ],
      [
        "▁'0'",
        -10.803972166475148
      ],
      [
        "istance",
        -10.804491901974506
      ],
      [
        "▁\"Create",
        -10.80476174672713
      ],
      [
        "▁'goods_",
        -10.80558310717349
      ],
      [
        "eme",
        -10.806120879294697
      ],
      [
        "AGEMENT_AND_TEAM",
        -10.806207927299205
      ],
      [
        "ize",
        -10.806252497021951
      ],
      [
        "anta",
        -10.806269671960827
      ],
      [
        "▁account.",
        -10.806535484888391
      ],
      [
        "▁'f",
        -10.806554395791606
      ],
      [
        "▁trim",
        -10.806692102396063
      ],
      [
        "lso",
        -10.80734594602888
      ],
      [
        "1`",
        -10.808276523793054
      ],
      [
        "▁\"get_user_info",
        -10.80850751510666
      ],
      [
        "past",
        -10.808627819350527
      ],
      [
        "▁appl",
        -10.809353235071328
      ],
      [
        "▁chat",
        -10.809566996619862
      ],
      [
        "addresses",
        -10.80977386897318
      ],
      [
        "tandard",
        -10.810084311830524
      ],
      [
        "▁Y",
        -10.810670482903088
      ],
      [
        "parentheses",
        -10.810891569280558
      ],
      [
        "est_common_",
        -10.811418648815991
      ],
      [
        "AU'",
        -10.812218483980752
      ],
      [
        "▁\"test",
        -10.812288416054516
      ],
      [
        "electro",
        -10.812539462009882
      ],
      [
        "api\"",
        -10.81350716066234
      ],
      [
        "▁label.",
        -10.81476014398509
      ],
      [
        "ederal",
        -10.81569828041451
      ],
      [
        "▁0.5",
        -10.815839967629891
      ],
      [
        "income",
        -10.815968370481372
      ],
      [
        "term_",
        -10.815994719211346
      ],
      [
        "nconst",
        -10.816606397666538
      ],
      [
        "▁digits",
        -10.816919880608241
      ],
      [
        "_a",
        -10.816970419158952
      ],
      [
        "▁train",
        -10.817462579524031
      ],
      [
        "episode",
        -10.817666026831086
      ],
      [
        "▁drawn",
        -10.818138677590216
      ],
      [
        "re_",
        -10.818181239738287
      ],
      [
        "▁\"E",
        -10.818292763104974
      ],
      [
        "▁\"mark",
        -10.818457248699927
      ],
      [
        "▁days.",
        -10.820041544432378
      ],
      [
        "▁pi",
        -10.820696010689009
      ],
      [
        "ly_forecast",
        -10.820743831714577
      ],
      [
        "requirements",
        -10.821071534729256
      ],
      [
        "X",
        -10.821259495091576
      ],
      [
        "destination",
        -10.821754161243888
      ],
      [
        "▁cup",
        -10.821817580192056
      ],
      [
        "▁\"0x",
        -10.822227358411771
      ],
      [
        "manufacturer",
        -10.822776464896183
      ],
      [
        "in'",
        -10.822996555307098
      ],
      [
        "aluminum",
        -10.824335366928494
      ],
      [
        "vin\"",
        -10.824423198379725
      ],
      [
        "meaning",
        -10.824463247523278
      ],
      [
        "▁2023.",
        -10.8255800855285
      ],
      [
        "▁0.1",
        -10.825823084822728
      ],
      [
        "▁ac",
        -10.827963657873397
      ],
      [
        "▁health",
        -10.828148168741151
      ],
      [
        "▁\"Paginat",
        -10.828170197484598
      ],
      [
        "_2",
        -10.829060753201878
      ],
      [
        "regression",
        -10.829411567081394
      ],
      [
        "▁Place",
        -10.829428417476308
      ],
      [
        "matchmaking",
        -10.829479475601827
      ],
      [
        "▁right",
        -10.82958439784233
      ],
      [
        "▁download",
        -10.829946948334937
      ],
      [
        "▁signals",
        -10.830431075265231
      ],
      [
        "▁two.",
        -10.83165100810648
      ],
      [
        "localized",
        -10.831816083669391
      ],
      [
        "▁cast",
        -10.83181876205921
      ],
      [
        "▁\"de",
        -10.83224723802769
      ],
      [
        "arrows",
        -10.833663193675125
      ],
      [
        "▁{\"dat",
        -10.83416625837124
      ],
      [
        "_1_",
        -10.835076750017402
      ],
      [
        "_product_detail",
        -10.835740311127855
      ],
      [
        "▁{\"time",
        -10.83649045223594
      ],
      [
        "nd",
        -10.836548507837547
      ],
      [
        "▁\"lower",
        -10.836857091559141
      ],
      [
        "▁16,",
        -10.837003368091356
      ],
      [
        "light",
        -10.83709267194975
      ],
      [
        "▁people",
        -10.837233944254798
      ],
      [
        "ate",
        -10.837632818662431
      ],
      [
        "point_b",
        -10.838749554867418
      ],
      [
        "▁'top'",
        -10.838780809272263
      ],
      [
        "▁\"U",
        -10.839356399069569
      ],
      [
        "search\"",
        -10.840630555721928
      ],
      [
        "ymbol",
        -10.84079932881534
      ],
      [
        "▁`2",
        -10.840876722647497
      ],
      [
        "▁note",
        -10.84124212792311
      ],
      [
        "ices",
        -10.842748953795589
      ],
      [
        "▁\"example",
        -10.84277299186128
      ],
      [
        "gain",
        -10.842804158870193
      ],
      [
        "la-",
        -10.843556832622932
      ],
      [
        "ice",
        -10.843635497985922
      ],
      [
        "chains",
        -10.843802100175083
      ],
      [
        "beverage",
        -10.844107167723369
      ],
      [
        "▁tweets",
        -10.844641600089211
      ],
      [
        "▁fast",
        -10.844923054772913
      ],
      [
        "duplicate",
        -10.846204936949553
      ],
      [
        "weather",
        -10.846234557755386
      ],
      [
        "F1",
        -10.846929814730721
      ],
      [
        "at_",
        -10.847501407879761
      ],
      [
        "▁\"5\"}}}}",
        -10.848413281037214
      ],
      [
        "month`",
        -10.848530397160996
      ],
      [
        "▁marks",
        -10.848688864025743
      ],
      [
        "▁\"video",
        -10.849391632512187
      ],
      [
        "▁28}",
        -10.851628747667059
      ],
      [
        "▁Motors",
        -10.853220989705251
      ],
      [
        "▁enti",
        -10.854687413865827
      ],
      [
        "▁locations.",
        -10.85477551460967
      ],
      [
        "language",
        -10.855009905842788
      ],
      [
        "▁\"can",
        -10.855585306969385
      ],
      [
        "▁\"2\"}",
        -10.855599512196497
      ],
      [
        "_large",
        -10.856777874911252
      ],
      [
        "_search",
        -10.856832481613699
      ],
      [
        "▁\"get_random_",
        -10.856849366220002
      ],
      [
        "subreddit",
        -10.857584370605274
      ],
      [
        "max",
        -10.857949236114514
      ],
      [
        "GB,",
        -10.858324089846278
      ],
      [
        "stock",
        -10.858758193416179
      ],
      [
        "ordering",
        -10.858769437869238
      ],
      [
        "▁NA",
        -10.859466717141574
      ],
      [
        "▁\"Call",
        -10.860318476258737
      ],
      [
        "these",
        -10.860514585935054
      ],
      [
        "▁Calculat",
        -10.861417288660448
      ],
      [
        "5-year",
        -10.861637372239342
      ],
      [
        "pri",
        -10.863297582854127
      ],
      [
        "nt",
        -10.863985369889413
      ],
      [
        "_locations",
        -10.865470506887222
      ],
      [
        "_category",
        -10.866114354146204
      ],
      [
        "s?",
        -10.866682590123629
      ],
      [
        "▁'r",
        -10.866820004756306
      ],
      [
        "▁de",
        -10.867245930750475
      ],
      [
        "▁\"title_",
        -10.867290237475565
      ],
      [
        "s_get_",
        -10.86796402086787
      ],
      [
        "▁{\"distance",
        -10.868210410891852
      ],
      [
        "detail\"",
        -10.868502002559818
      ],
      [
        "_stock",
        -10.870017142927008
      ],
      [
        "▁\"field",
        -10.871486845409267
      ],
      [
        "▁[11",
        -10.871917578476488
      ],
      [
        "▁voltage",
        -10.87232903866655
      ],
      [
        "(x)",
        -10.872495771233133
      ],
      [
        "13",
        -10.876191506962442
      ],
      [
        "▁100,",
        -10.877259995034256
      ],
      [
        "▁episode",
        -10.87887660829853
      ],
      [
        "_period",
        -10.879004767729217
      ],
      [
        "▁birthdate",
        -10.879120022830508
      ],
      [
        "▁\"products",
        -10.879288920323972
      ],
      [
        "▁\"Star",
        -10.880467954855222
      ],
      [
        "n-",
        -10.880760716413603
      ],
      [
        "available",
        -10.88079272675758
      ],
      [
        "ables",
        -10.881127044188103
      ],
      [
        "▁{\"source",
        -10.8827526500375
      ],
      [
        "special",
        -10.882754892436314
      ],
      [
        "stops",
        -10.882796949247007
      ],
      [
        "▁MX",
        -10.883595083752123
      ],
      [
        "▁send",
        -10.883754937857375
      ],
      [
        "bats",
        -10.8845320057686
      ],
      [
        "▁5678",
        -10.884883633499998
      ],
      [
        "IN",
        -10.885876212711475
      ],
      [
        "▁comp",
        -10.88630377941761
      ],
      [
        "▁\"get_p",
        -10.886499403726384
      ],
      [
        "creators",
        -10.886630651915448
      ],
      [
        "geocoding",
        -10.887886116942026
      ],
      [
        "▁17,",
        -10.890098286236364
      ],
      [
        "std_dev",
        -10.890475235079906
      ],
      [
        "periods",
        -10.891066546782106
      ],
      [
        "▁challenge",
        -10.891152943308668
      ],
      [
        ".co",
        -10.891644674075202
      ],
      [
        "▁`4",
        -10.893253290546012
      ],
      [
        "_url\"",
        -10.894183163538656
      ],
      [
        "y_value",
        -10.89474447793439
      ],
      [
        "optional\"",
        -10.894838436198542
      ],
      [
        "▁'N",
        -10.895060220015852
      ],
      [
        "performance",
        -10.895141761252026
      ],
      [
        "▁\"Q",
        -10.895556697979146
      ],
      [
        "▁search.\"",
        -10.895922394957578
      ],
      [
        "field\"",
        -10.898512699141794
      ],
      [
        "▁requirements",
        -10.899192103942289
      ],
      [
        "▁\"li",
        -10.899684718228924
      ],
      [
        "motivation",
        -10.900222563439645
      ],
      [
        "auto_complete",
        -10.90095755883857
      ],
      [
        "▁\"US",
        -10.902195556263381
      ],
      [
        "function",
        -10.902244586434385
      ],
      [
        "▁\"list_",
        -10.902951575993406
      ],
      [
        "▁\"word",
        -10.90402670028279
      ],
      [
        "▁\"remov",
        -10.904201065958139
      ],
      [
        "▁review",
        -10.904269182564864
      ],
      [
        "▁27",
        -10.904613173155342
      ],
      [
        "48\"}",
        -10.906995273445446
      ],
      [
        "barcode\"",
        -10.907575849689735
      ],
      [
        "orth",
        -10.908004502733627
      ],
      [
        "files",
        -10.908782445171564
      ],
      [
        "▁86",
        -10.909529603705565
      ],
      [
        "▁etc.)",
        -10.910069518300434
      ],
      [
        "▁uppercase",
        -10.91086239898646
      ],
      [
        "▁\"download",
        -10.912351198897417
      ],
      [
        "_men",
        -10.91390467627383
      ],
      [
        "29\"}",
        -10.915869419605965
      ],
      [
        "▁collection",
        -10.917036535022632
      ],
      [
        "prefix\"",
        -10.917821082930256
      ],
      [
        "weight\"",
        -10.918131949098447
      ],
      [
        "▁lists",
        -10.918529199181235
      ],
      [
        "upported",
        -10.918577787175153
      ],
      [
        "▁\"billboard_",
        -10.919195658535537
      ],
      [
        "\"product_id\"",
        -10.919503381954456
      ],
      [
        "▁\"US\"",
        -10.919800190823093
      ],
      [
        "▁rang",
        -10.919991689522854
      ],
      [
        "▁{\"start_l",
        -10.921651482711368
      ],
      [
        "ted.",
        -10.92180885840152
      ],
      [
        "Send",
        -10.922557796830244
      ],
      [
        "▁\"500\"}",
        -10.924383194870023
      ],
      [
        "advanced",
        -10.926494795515898
      ],
      [
        "▁\"earnings",
        -10.927396185603397
      ],
      [
        "emails",
        -10.927589486579393
      ],
      [
        "asin",
        -10.927814845658531
      ],
      [
        "ena-vida-cabinas",
        -10.927859766380454
      ],
      [
        "group_",
        -10.927902461505155
      ],
      [
        "addition",
        -10.928108798548681
      ],
      [
        "24",
        -10.928921459873234
      ],
      [
        "▁\"bin",
        -10.929768935035703
      ],
      [
        "▁\"min",
        -10.930398347963992
      ],
      [
        "_code",
        -10.930514248401488
      ],
      [
        "▁fun",
        -10.931268637797249
      ],
      [
        "rowth",
        -10.931292901884612
      ],
      [
        "4'",
        -10.931494666316652
      ],
      [
        "▁Lo",
        -10.931614518378609
      ],
      [
        "releases\"",
        -10.93176525433508
      ],
      [
        "nique",
        -10.93192203300781
      ],
      [
        "election",
        -10.932597109236667
      ],
      [
        "ETH/BTC",
        -10.932729678846087
      ],
      [
        "wo-",
        -10.932747956976694
      ],
      [
        "INANCE",
        -10.93310315007652
      ],
      [
        "example.com\"}}",
        -10.933126783297373
      ],
      [
        "▁Na",
        -10.933136697074238
      ],
      [
        "▁\"8.8.8.8\"}",
        -10.933310727219377
      ],
      [
        "S_AND_CAPITAL",
        -10.933310727219386
      ],
      [
        "-122.42282",
        -10.93331072808162
      ],
      [
        "feed_video_posts",
        -10.93331072866565
      ],
      [
        "▁determine",
        -10.93331073048789
      ],
      [
        "▁GTIN",
        -10.933310766287905
      ],
      [
        "▁HTML",
        -10.933310780076276
      ],
      [
        "▁\"get_movies_by_",
[...]
